<unk>	0
<s>	0
</s>	0
▁(	-2.44986
▁)	-2.45362
▁,	-3.02406
▁.	-3.13966
▁=	-3.19573
▁:	-3.39267
▁'	-3.62308
'	-3.62801
▁[	-4.10246
▁]	-4.10481
▁if	-4.45281
▁	-4.66401
▁return	-4.74763
▁def	-4.91136
s	-4.96832
▁in	-5.02084
▁None	-5.20827
▁1	-5.29439
▁name	-5.30933
▁get	-5.38971
▁for	-5.39029
▁0	-5.44069
▁not	-5.4874
▁%	-5.62876
▁is	-5.6868
▁path	-5.68842
▁==	-5.76793
▁u	-5.78312
▁+	-5.78496
▁-	-5.82639
▁else	-5.84105
▁id	-5.94127
▁Error	-5.97818
▁data	-5.99403
.	-6.00306
▁*	-6.10057
▁x	-6.13305
▁key	-6.13382
▁False	-6.15025
▁True	-6.17354
▁{	-6.1845
n	-6.2071
▁and	-6.22766
▁to	-6.24067
▁}	-6.24257
▁value	-6.25395
▁raise	-6.31078
▁i	-6.33502
▁len	-6.35865
▁format	-6.3593
▁2	-6.37133
▁args	-6.37429
▁type	-6.37448
▁os	-6.38439
2	-6.41164
▁n	-6.4579
▁request	-6.45844
▁file	-6.46583
▁np	-6.46919
1	-6.49304
▁a	-6.4987
▁user	-6.50092
▁or	-6.50231
▁ret	-6.51669
▁try	-6.53274
▁list	-6.53285
▁f	-6.53737
▁except	-6.56365
▁s	-6.58462
-	-6.58791
▁append	-6.59253
elif	-6.61608
d	-6.64339
▁assert	-6.64858
▁kwargs	-6.65964
▁**	-6.69891
▁result	-6.7093
▁info	-6.71036
▁dict	-6.75007
▁p	-6.76198
▁c	-6.77557
▁set	-6.77889
▁url	-6.78207
▁config	-6.82082
/	-6.82861
▁as	-6.83266
:	-6.83948
▁line	-6.86008
▁context	-6.86258
▁isinstance	-6.8745
▁join	-6.87496
▁from	-6.90742
▁str	-6.91873
▁new	-6.92078
▁@	-6.92121
▁y	-6.97342
▁t	-7.01266
\	-7.01494
▁v	-7.02538
▁test	-7.03762
▁k	-7.05505
▁Value	-7.06913
▁text	-7.07294
▁with	-7.08234
▁add	-7.10307
▁print	-7.11224
▁log	-7.11664
▁r	-7.11813
▁size	-7.1187
▁error	-7.1358
▁e	-7.13888
▁split	-7.13969
▁int	-7.14315
▁dir	-7.1456
▁/	-7.14834
▁module	-7.14959
▁version	-7.15221
▁!=	-7.15623
r	-7.17271
▁string	-7.17369
+=	-7.18472
▁node	-7.18601
▁b	-7.19471
.'	-7.19571
▁d	-7.20467
▁obj	-7.20545
▁3	-7.21045
▁m	-7.22125
,	-7.22191
▁response	-7.23777
▁import	-7.24136
▁filename	-7.24763
▁msg	-7.279
▁start	-7.28162
▁func	-7.2831
▁shape	-7.29037
ing	-7.29278
▁out	-7.29322
▁output	-7.30041
▁index	-7.3382
▁group	-7.34107
3	-7.349
▁default	-7.35247
▁time	-7.35508
▁params	-7.35943
name	-7.36841
▁model	-7.38465
▁>	-7.3909
▁the	-7.40198
▁max	-7.40316
▁item	-7.40353
▁field	-7.40586
▁image	-7.41136
▁'%	-7.4292
▁all	-7.44145
▁options	-7.45152
▁cmd	-7.45366
▁update	-7.4553
▁salt	-7.45906
▁<	-7.45916
▁match	-7.4626
x	-7.46291
▁query	-7.46478
▁"	-7.46569
▁be	-7.49344
▁sys	-7.50094
▁check	-7.50148
▁num	-7.50627
▁filter	-7.51837
▁self	-7.524
▁range	-7.53096
▁class	-7.53113
▁read	-7.53207
▁app	-7.54045
y	-7.54626
▁message	-7.54987
▁code	-7.55531
▁table	-7.55788
▁settings	-7.56059
▁host	-7.5621
▁X	-7.56432
▁status	-7.56967
▁Type	-7.5697
▁db	-7.57769
▁state	-7.59516
▁write	-7.6077
▁source	-7.62027
ed	-7.62389
▁instance	-7.62574
▁count	-7.63127
▁of	-7.63648
▁S	-7.64098
▁create	-7.64899
▁re	-7.64988
▁T	-7.65607
▁profile	-7.65686
▁dtype	-7.66136
▁Name	-7.6741
▁base	-7.67601
▁target	-7.68636
▁opts	-7.69359
)	-7.69688
▁val	-7.7032
▁mode	-7.70487
▁l	-7.70841
▁arg	-7.71581
"	-7.71687
▁current	-7.73317
▁names	-7.74219
▁course	-7.74513
▁method	-7.74938
▁values	-7.75203
▁array	-7.75575
▁cache	-7.75734
▁end	-7.75818
▁w	-7.76229
▁port	-7.77457
▁content	-7.77816
▁res	-7.78855
▁4	-7.79344
▁g	-7.80273
▁session	-7.80399
▁parse	-7.80655
▁input	-7.81188
▁object	-7.8121
▁find	-7.81246
e	-7.81324
▁items	-7.81408
▁h	-7.82767
▁'\	-7.83573
▁Exception	-7.83892
0	-7.83936
▁token	-7.84384
▁utils	-7.84431
▁debug	-7.84538
▁by	-7.84649
▁continue	-7.85064
▁tag	-7.85535
▁client	-7.86056
▁open	-7.86422
▁prefix	-7.86671
▁run	-7.86789
▁A	-7.86878
▁label	-7.86966
=	-7.87496
▁raw	-7.87744
▁root	-7.89017
▁keys	-7.89079
▁date	-7.89572
▁j	-7.8987
▁template	-7.9066
▁row	-7.92235
▁G	-7.93528
▁files	-7.9486
▁exc	-7.94965
▁json	-7.95911
▁replace	-7.96004
▁float	-7.96439
▁pos	-7.96586
m	-7.97235
▁has	-7.9728
▁form	-7.97994
▁while	-7.98054
▁File	-7.98101
▁strip	-7.9843
▁conn	-7.98673
▁lines	-7.99115
▁pass	-7.9938
▁service	-7.99666
▁map	-8.00098
▁min	-8.00336
a	-8.00489
▁event	-8.00742
▁q	-8.01087
▁parser	-8.01613
▁password	-8.02472
▁logger	-8.0291
▁C	-8.03764
▁load	-8.04289
▁axis	-8.04352
▁command	-8.04429
▁types	-8.04701
▁err	-8.04951
▁idx	-8.05085
▁old	-8.06096
▁server	-8.06536
▁parent	-8.07007
▁Key	-8.07262
▁action	-8.08107
id	-8.08113
▁lower	-8.08765
▁must	-8.09164
▁ip	-8.09236
▁task	-8.09445
▁resource	-8.098
▁'--	-8.09815
▁exists	-8.09884
%	-8.09905
▁on	-8.10037
▁startswith	-8.10528
▁length	-8.10727
▁conf	-8.10874
▁header	-8.1127
b	-8.12257
▁copy	-8.12447
comment	-8.13193
▁yield	-8.13452
▁headers	-8.13528
f	-8.14205
▁random	-8.14318
▁number	-8.15817
▁function	-8.15986
▁cls	-8.16931
▁email	-8.16972
▁fields	-8.17101
▁delete	-8.1715
▁op	-8.17889
▁doc	-8.18052
▁first	-8.18448
▁env	-8.18478
▁objects	-8.18893
▁device	-8.19577
▁search	-8.19637
▁lambda	-8.1969
▁last	-8.1981
▁sub	-8.20304
▁auth	-8.20501
▁use	-8.20622
▁title	-8.2159
▁src	-8.2167
▁getattr	-8.22182
▁break	-8.22714
▁record	-8.23334
▁5	-8.23603
▁region	-8.23668
▁remove	-8.24014
type	-8.24479
▁make	-8.24809
S	-8.25149
▁found	-8.25488
▁fname	-8.25676
▁project	-8.25726
▁sum	-8.25937
▁P	-8.26039
file	-8.26581
▁valid	-8.26724
▁username	-8.26876
▁next	-8.26991
▁M	-8.27021
▁datetime	-8.27347
▁call	-8.27428
▁color	-8.27483
▁local	-8.27626
▁1.0	-8.2765
▁results	-8.27731
▁page	-8.28049
data	-8.2821
▁api	-8.28657
▁order	-8.28952
▁expr	-8.29009
t	-8.29425
▁encoding	-8.2953
B	-8.29558
▁col	-8.30834
▁attr	-8.30923
▁exception	-8.30949
▁z	-8.31559
▁xml	-8.32531
▁logging	-8.32775
result	-8.33022
▁option	-8.33251
▁equal	-8.34313
▁'-	-8.34404
▁Element	-8.34443
▁errors	-8.34735
▁Not	-8.35189
▁hasattr	-8.35501
▁pop	-8.35659
▁global	-8.3593
u	-8.35948
▁tuple	-8.36234
▁element	-8.36311
▁no	-8.37412
▁bytes	-8.38673
▁fn	-8.39283
▁R	-8.39328
▁save	-8.39571
▁I	-8.39674
▁this	-8.39723
▁offset	-8.40216
▁ref	-8.40929
▁stdout	-8.41127
▁close	-8.41276
▁L	-8.41548
▁unicode	-8.41622
▁N	-8.417
▁block	-8.41892
▁K	-8.42044
▁Index	-8.42809
▁Path	-8.43084
▁>=	-8.4311
▁timeout	-8.43434
path	-8.4351
▁10	-8.43891
▁The	-8.44275
▁tf	-8.44334
▁ids	-8.44414
list	-8.44446
▁ax	-8.44717
▁entry	-8.4482
▁seq	-8.45216
▁body	-8.45464
▁view	-8.45525
▁D	-8.46124
▁address	-8.46351
▁init	-8.46445
▁sort	-8.4646
▁labels	-8.46782
er	-8.46902
▁help	-8.47855
▁environ	-8.47863
▁{0}	-8.48003
▁parts	-8.4815
▁extra	-8.48501
▁0.0	-8.48947
w	-8.49037
▁width	-8.4926
▁required	-8.49422
▁location	-8.50324
▁numpy	-8.50412
4	-8.50599
▁Node	-8.50864
▁meta	-8.51262
▁<=	-8.51586
▁limit	-8.51637
▁B	-8.51677
▁Response	-8.5223
▁level	-8.52452
)'	-8.52512
▁package	-8.53387
▁metadata	-8.54469
▁encode	-8.54831
▁ch	-8.55167
▁spec	-8.55396
▁stream	-8.55677
c	-8.55898
▁connection	-8.56303
▁vm	-8.56402
▁String	-8.56559
▁domain	-8.56698
▁mask	-8.57057
▁script	-8.57264
test	-8.57376
▁hash	-8.57389
32	-8.57452
i	-8.57511
▁step	-8.57685
▁render	-8.5772
▁html	-8.58413
▁iter	-8.5849
▁show	-8.58551
▁'.'	-8.58723
▁dest	-8.58884
▁'/	-8.59286
▁comment	-8.59322
▁full	-8.5975
▁var	-8.60058
▁verbose	-8.60149
▁sample	-8.60314
▁pattern	-8.60854
▁No	-8.60944
▁process	-8.61291
html	-8.61836
▁nodes	-8.62015
▁handler	-8.62247
▁IO	-8.62419
▁child	-8.62522
▁expected	-8.62794
▁only	-8.62902
▁one	-8.62942
▁link	-8.62947
▁DCT	-8.63766
▁'/'	-8.63864
▁F	-8.6403
▁at	-8.64062
db	-8.64184
▁stderr	-8.64249
▁build	-8.64274
▁&	-8.64424
(	-8.64494
▁socket	-8.64702
▁Invalid	-8.64753
▁true	-8.65302
▁cur	-8.66055
▁enumerate	-8.66148
able	-8.6656
▁User	-8.66629
▁{0}'	-8.6712
▁argument	-8.67885
▁directory	-8.67901
▁decode	-8.68119
▁point	-8.68247
▁sorted	-8.68727
▁param	-8.68795
▁keyid	-8.68995
▁unit	-8.6954
utf	-8.6964
▁handle	-8.6968
▁total	-8.69792
▁site	-8.69863
▁vars	-8.70077
▁reverse	-8.70115
▁Get	-8.70146
64	-8.70461
▁Attribute	-8.70528
▁fp	-8.70593
▁diff	-8.70679
▁register	-8.71081
>'	-8.71129
▁word	-8.71219
▁mod	-8.71551
▁req	-8.71572
▁img	-8.71846
▁E	-8.71961
▁zip	-8.72835
▁job	-8.7284
▁http	-8.7451
▁network	-8.7464
▁train	-8.74766
▁post	-8.75141
▁abs	-8.75142
▁matrix	-8.75176
▁extend	-8.75224
▁groups	-8.75351
▁Q	-8.75541
▁warn	-8.75733
▁Request	-8.76091
▁del	-8.76178
▁CONF	-8.76439
▁six	-8.76705
py	-8.76786
▁tree	-8.76931
▁batch	-8.77023
▁tmp	-8.77296
▁o	-8.77705
▁left	-8.77865
▁uuid	-8.78151
▁loop	-8.78636
▁do	-8.78885
▁List	-8.78954
▁models	-8.7916
▁inputs	-8.79554
▁8	-8.79645
▁6	-8.79807
▁dirname	-8.79947
▁Http	-8.80487
▁kw	-8.80487
▁dot	-8.80503
▁volume	-8.80658
▁access	-8.80679
▁'.	-8.80893
5	-8.8091
▁namespace	-8.81305
▁mapping	-8.81315
▁python	-8.81797
▁paths	-8.82169
▁Data	-8.82919
▁locale	-8.83208
▁ndim	-8.83515
▁Text	-8.83527
▁H	-8.83686
▁tags	-8.83885
▁exp	-8.84229
▁subject	-8.8461
▁store	-8.85014
user	-8.85024
▁role	-8.85026
▁safe	-8.85118
▁flags	-8.85126
▁layer	-8.85219
p	-8.85262
changes	-8.85347
▁force	-8.85443
▁repo	-8.85493
▁system	-8.85702
▁part	-8.85828
▁login	-8.8592
▁send	-8.86399
endswith	-8.86482
value	-8.86814
▁W	-8.86904
▁im	-8.86986
▁ext	-8.87282
▁zeros	-8.87803
▁stop	-8.87925
▁To	-8.88113
▁alpha	-8.88221
▁'<	-8.88263
▁dist	-8.88536
▁should	-8.88585
▁description	-8.88852
-8'	-8.88855
▁df	-8.89266
▁document	-8.89558
▁warnings	-8.89938
▁net	-8.90031
▁scope	-8.9015
▁pkg	-8.90182
▁platform	-8.90198
▁callback	-8.90363
▁|	-8.90748
▁0.5	-8.91276
▁Test	-8.91361
▁mean	-8.91397
▁temp	-8.91481
▁exit	-8.91575
▁uri	-8.91652
▁rows	-8.91857
▁wrapper	-8.91903
▁warning	-8.92033
▁dim	-8.92122
▁shell	-8.92168
▁now	-8.92267
▁stats	-8.92361
lib	-8.92611
▁right	-8.92652
▁thread	-8.92685
▁column	-8.92804
▁opt	-8.93396
▁lang	-8.93413
▁ignore	-8.93439
▁stack	-8.93584
▁compile	-8.93673
▁schema	-8.9389
▁URL	-8.94039
▁%(	-8.94181
▁py	-8.9419
error	-8.94204
▁frame	-8.94308
▁dev	-8.94709
▁chunk	-8.95
▁convert	-8.95302
▁epochs	-8.95518
▁failed	-8.95585
\\	-8.95595
▁filters	-8.96147
▁setup	-8.96287
▁graph	-8.96366
▁bits	-8.96385
▁plugin	-8.96386
▁have	-8.96396
▁main	-8.96441
▁--	-8.96523
▁norm	-8.9655
▁policy	-8.96565
▁language	-8.96667
▁frappe	-8.96811
▁scale	-8.97421
▁indices	-8.97453
▁backend	-8.98119
▁win	-8.98294
▁pytest	-8.98368
▁pk	-8.98471
▁validate	-8.98559
▁weight	-8.98607
▁char	-8.98622
▁attrs	-8.98703
▁repository	-8.98735
▁an	-8.99572
://	-8.99753
▁connect	-8.99844
▁dataset	-8.99984
▁modules	-9.00132
▁slug	-9.00606
▁LOG	-9.00761
▁lib	-9.00851
▁real	-9.01592
▁':'	-9.01697
▁events	-9.01735
▁owner	-9.01785
▁redirect	-9.01811
cmd	-9.01935
▁cert	-9.02127
▁include	-9.02496
▁ctx	-9.02535
▁POST	-9.02794
▁hostname	-9.02955
▁empty	-9.03343
▁delta	-9.03436
▁fs	-9.03506
table	-9.03538
A	-9.03676
▁year	-9.037
▁addr	-9.03736
▁height	-9.04245
▁can	-9.04463
▁folder	-9.04485
▁select	-9.04608
▁install	-9.04963
▁rule	-9.05161
▁section	-9.05291
▁style	-9.05332
text	-9.05533
▁other	-9.05757
key	-9.0581
▁Object	-9.05888
▁Id	-9.05929
get	-9.06088
▁any	-9.06127
▁Sub	-9.06479
on	-9.06491
▁builder	-9.06523
▁Un	-9.06707
info	-9.06783
▁skip	-9.07449
▁collection	-9.079
▁DEFAULT	-9.07903
▁Failed	-9.07928
all	-9.08066
▁active	-9.08229
▁execute	-9.08478
▁provider	-9.08546
▁admin	-9.08743
▁features	-9.09454
▁plot	-9.0973
▁kind	-9.09848
▁subprocess	-9.09865
▁resp	-9.10263
▁fig	-9.10719
"'	-9.10754
▁sep	-9.11243
▁queue	-9.11384
▁release	-9.11458
▁NAME	-9.11499
▁XML	-9.11574
▁100	-9.11656
}	-9.11734
▁dt	-9.11833
▁Import	-9.11852
▁dirs	-9.12065
=%	-9.12163
▁it	-9.12224
.\	-9.12468
▁stat	-9.12568
▁generate	-9.12609
▁category	-9.12629
'"	-9.12659
▁bool	-9.12721
▁score	-9.12761
▁exclude	-9.12879
no	-9.13153
D	-9.13185
▁payload	-9.13258
▁weights	-9.13626
iteritems	-9.13839
▁parsed	-9.13936
▁zone	-9.14268
▁account	-9.14325
▁columns	-9.14583
▁display	-9.14608
▁created	-9.14812
▁orig	-9.14909
6	-9.14912
▁manager	-9.14955
▁are	-9.15146
▁ID	-9.1517
▁remote	-9.15499
▁images	-9.15638
▁points	-9.15746
▁click	-9.1578
▁container	-9.15955
▁head	-9.1616
▁st	-9.16225
▁cfg	-9.1654
▁wait	-9.16561
version	-9.16721
▁OS	-9.16721
▁argv	-9.16752
▁arr	-9.16945
annot	-9.17037
▁Set	-9.17227
▁samples	-9.17303
▁top	-9.17341
▁FIFF	-9.17488
▁indent	-9.17628
▁finally	-9.17671
▁util	-9.17693
}'	-9.17769
▁proxy	-9.17814
▁xrange	-9.17833
▁timestamp	-9.17923
dict	-9.18034
▁buffer	-9.18041
▁fit	-9.18059
▁System	-9.18198
▁raises	-9.18246
▁using	-9.18333
▁rv	-9.18349
▁pool	-9.18684
▁HTTP	-9.19036
▁','	-9.19125
▁deleted	-9.19272
▁fd	-9.19534
▁children	-9.19547
▁Y	-9.19619
run	-9.1965
message	-9.20083
8	-9.20132
▁repr	-9.2043
▁tokens	-9.20731
▁dst	-9.20796
▁Fro	-9.20859
▁Table	-9.21263
▁Found	-9.21374
▁parameters	-9.21609
Y	-9.21625
o	-9.21767
."	-9.21812
▁trans	-9.21837
▁Command	-9.22059
▁classes	-9.22318
▁variable	-9.22349
▁day	-9.22791
▁'\\	-9.22877
▁interface	-9.22919
▁insert	-9.23072
▁attribute	-9.23108
▁times	-9.23208
▁plt	-9.23337
▁non	-9.23344
http	-9.23354
▁report	-9.23716
▁allow	-9.2378
▁missing	-9.24088
▁does	-9.24159
▁product	-9.24235
▁channel	-9.24433
▁messages	-9.24592
config	-9.2465
ion	-9.24806
▁fail	-9.24895
▁Salt	-9.25042
▁tensor	-9.25076
size	-9.2518
▁sql	-9.25247
▁fid	-9.2537
▁permission	-9.25553
or	-9.25993
▁//	-9.26061
set	-9.26144
▁suffix	-9.26386
▁scheme	-9.26806
▁extension	-9.26832
▁ex	-9.26951
▁cluster	-9.27149
▁upper	-9.27538
▁available	-9.27622
:%	-9.27625
▁contents	-9.27634
▁devices	-9.27645
▁clean	-9.27851
▁attributes	-9.27858
dir	-9.2804
▁gen	-9.28044
asarray	-9.28281
▁depth	-9.28295
▁changed	-9.2834
▁pre	-9.28391
▁buf	-9.28711
▁7	-9.28862
status	-9.29158
▁Server	-9.29247
▁sqrt	-9.29264
▁usage	-9.29295
▁after	-9.29756
▁registry	-9.29761
▁change	-9.29866
▁cookie	-9.30006
▁where	-9.30015
▁picks	-9.30095
▁require	-9.30097
▁commit	-9.30342
▁Output	-9.304
▁md	-9.30412
▁slice	-9.3051
api	-9.30547
▁enabled	-9.30573
▁prop	-9.30634
default	-9.3081
▁prev	-9.30824
▁Image	-9.30874
▁desc	-9.30897
▁escape	-9.30939
▁regex	-9.30959
▁was	-9.30998
▁fmt	-9.3123
▁sequence	-9.31238
▁Version	-9.31346
out	-9.31384
▁entity	-9.31398
▁By	-9.31504
▁basename	-9.31574
▁Point	-9.31741
▁seconds	-9.31911
▁ind	-9.32324
max	-9.3252
▁Runtime	-9.335
▁window	-9.33625
▁Loop	-9.33659
▁Handler	-9.34005
▁quote	-9.34138
▁colors	-9.34311
▁requires	-9.34332
url	-9.34478
▁Group	-9.34555
▁'-'	-9.34651
l	-9.34651
▁\	-9.34787
▁vals	-9.34793
▁long	-9.3483
h	-9.34939
▁disk	-9.34981
▁public	-9.35174
▁V	-9.35177
▁Content	-9.35194
in	-9.35288
▁16	-9.35484
▁lookup	-9.35551
▁cov	-9.35653
▁Client	-9.35837
▁mark	-9.35968
▁interval	-9.36391
▁per	-9.36497
▁U	-9.36602
▁core	-9.36711
▁summary	-9.3673
▁defaults	-9.37073
▁404	-9.37091
▁rel	-9.37102
]	-9.37207
▁existing	-9.3745
▁GET	-9.37694
com	-9.37808
▁2.0	-9.37985
▁property	-9.38063
▁django	-9.38131
v	-9.38176
▁comps	-9.38527
▁hass	-9.38696
▁"%	-9.38751
▁loc	-9.38812
ly	-9.39004
▁pid	-9.39006
g	-9.39188
▁struct	-9.39316
X	-9.39468
▁month	-9.39606
▁term	-9.3973
▁ssl	-9.39749
▁rest	-9.39913
▁storage	-9.39947
▁Config	-9.4
▁sock	-9.40036
▁signal	-9.40153
▁Service	-9.40161
▁topic	-9.40224
▁exceptions	-9.40285
/%	-9.40436
▁Context	-9.40461
▁Dict	-9.40523
▁allclose	-9.40625
▁tests	-9.41043
▁installed	-9.41089
▁extract	-9.41113
▁compute	-9.412
-%	-9.41267
▁O	-9.41579
▁decorator	-9.41597
▁already	-9.41712
▁configuration	-9.41788
ctypes	-9.41865
▁axes	-9.42244
▁users	-9.42285
▁Warning	-9.42587
▁words	-9.4293
▁edge	-9.42998
▁clear	-9.43008
▁Time	-9.43212
▁elem	-9.43218
▁pad	-9.43476
▁feature	-9.43623
▁original	-9.43907
▁engine	-9.44115
▁bin	-9.44222
▁apply	-9.44275
▁You	-9.44297
▁lock	-9.44301
line	-9.44346
[	-9.44551
▁isdir	-9.44686
▁zero	-9.45273
▁supported	-9.45534
▁trace	-9.45585
▁before	-9.45627
▁cursor	-9.45902
▁bucket	-9.45924
▁Template	-9.4594
▁tool	-9.46729
▁secret	-9.46738
▁inv	-9.46802
▁Class	-9.46808
▁theano	-9.46941
▁factory	-9.46958
▁setting	-9.47246
▁flag	-9.47487
▁proc	-9.47625
▁properties	-9.47936
▁Model	-9.48022
▁derivation	-9.48025
▁In	-9.48275
▁chunks	-9.48386
▁matches	-9.48463
▁binary	-9.48478
▁used	-9.48527
▁packages	-9.48648
▁sender	-9.48762
▁transform	-9.48867
▁Complex	-9.48912
store	-9.49041
▁Add	-9.49119
▁archive	-9.49144
▁Parser	-9.493
▁virtual	-9.49312
:'	-9.49347
▁conv	-9.49551
▁will	-9.49764
▁alias	-9.49879
▁Msg	-9.49906
▁Field	-9.49962
▁60	-9.49988
▁Function	-9.49997
▁dumps	-9.50176
▁evoked	-9.5025
▁Form	-9.50477
▁parameter	-9.50541
json	-9.50547
▁components	-9.50776
▁changes	-9.51201
▁revision	-9.51557
▁abspath	-9.51956
▁position	-9.52173
▁pack	-9.52376
▁loader	-9.52527
▁Val	-9.52535
▁channels	-9.5267
▁cols	-9.52958
▁success	-9.5298
▁download	-9.52986
▁seed	-9.5336
▁media	-9.53422
▁Line	-9.53471
▁auto	-9.53486
▁yaml	-9.53513
▁Message	-9.53687
▁ratio	-9.53755
▁member	-9.53886
▁unique	-9.53906
▁marker	-9.54163
▁eval	-9.54191
code	-9.54328
▁exist	-9.54355
▁pb	-9.54369
▁case	-9.54424
▁my	-9.54467
▁verify	-9.54518
▁controller	-9.54599
▁invalid	-9.54671
▁arguments	-9.54689
▁protocol	-9.54745
▁patch	-9.54767
▁reshape	-9.54798
▁Module	-9.54992
▁sr	-9.55155
▁sig	-9.55199
▁math	-9.55289
▁loads	-9.55388
▁merge	-9.55403
▁io	-9.55533
▁route	-9.55558
▁normalize	-9.55593
▁hosts	-9.55959
▁rec	-9.56042
▁deprecated	-9.56101
|	-9.56189
▁common	-9.56242
▁fun	-9.56366
▁best	-9.56476
▁20	-9.56552
▁steps	-9.56781
▁database	-9.57034
▁klass	-9.5711
▁fill	-9.57629
args	-9.57654
▁sleep	-9.57942
▁outputs	-9.57996
▁branch	-9.58098
▁allowed	-9.58648
string	-9.58729
▁expand	-9.58914
▁Length	-9.58971
▁freq	-9.59183
▁that	-9.59443
▁fh	-9.60137
▁curr	-9.60324
▁uid	-9.60421
▁metric	-9.60488
▁factor	-9.60744
▁pred	-9.60837
▁inner	-9.61031
▁endpoint	-9.61155
▁commands	-9.61376
action	-9.6144
▁radius	-9.61478
▁errno	-9.61517
▁{1}'	-9.61629
▁inspect	-9.61649
host	-9.61751
]'	-9.6186
▁seen	-9.61983
▁0.1	-9.6231
▁series	-9.62356
▁Base	-9.62427
▁master	-9.62553
▁edges	-9.62574
1'	-9.62596
▁running	-9.62625
▁begin	-9.62638
▁targets	-9.62748
▁details	-9.6298
▁days	-9.6305
▁Exit	-9.63123
open	-9.63245
▁jobs	-9.63336
▁git	-9.63442
>	-9.63448
new	-9.63501
▁cli	-9.63536
▁sparse	-9.6356
▁Open	-9.63607
.%	-9.63659
▁Info	-9.63762
▁component	-9.63774
▁eq	-9.63811
index	-9.63874
▁pi	-9.63896
▁inst	-9.64141
start	-9.6419
▁urllib	-9.64221
▁mac	-9.64434
▁rc	-9.64734
image	-9.64924
▁traceback	-9.65045
▁digest	-9.65161
▁API	-9.65208
▁Repositor	-9.65217
▁CONFIG	-9.65219
title	-9.65376
▁up	-9.6553
▁cc	-9.65583
▁snapshot	-9.65617
▁packet	-9.65718
▁degree	-9.65916
rb	-9.6592
▁library	-9.66281
▁{}'	-9.66414
ext	-9.66661
▁unpack	-9.66707
▁you	-9.66724
▁origin	-9.66734
port	-9.6679
▁updated	-9.66882
▁ensure	-9.66919
▁mock	-9.66936
class	-9.66945
is	-9.67299
▁locals	-9.67304
▁setdefault	-9.67689
▁stc	-9.67926
▁rate	-9.67988
▁arange	-9.68017
▁keep	-9.68025
▁wrapped	-9.68053
▁cwd	-9.68189
z	-9.68285
▁dup	-9.68451
▁second	-9.68462
▁proj	-9.6855
▁KEY	-9.68571
▁tz	-9.68674
▁pe	-9.68685
▁Dictionary	-9.68742
▁home	-9.68856
▁basestring	-9.68993
▁vpc	-9.69065
▁reg	-9.69126
▁filepath	-9.69128
▁segment	-9.69285
▁forward	-9.69295
▁which	-9.69404
es	-9.69409
▁vector	-9.69457
▁nx	-9.69458
▁32	-9.69484
▁hex	-9.69584
str	-9.69587
▁',	-9.69775
▁rgb	-9.69878
▁actual	-9.69883
▁specified	-9.69883
▁power	-9.70006
▁rpc	-9.7008
▁lineno	-9.70125
▁wrap	-9.70176
splitlines	-9.70182
▁application	-9.70239
▁iface	-9.70311
▁Thi	-9.70414
▁Create	-9.7055
▁Python	-9.70655
▁255	-9.70968
C	-9.71008
org	-9.71017
▁ord	-9.71336
▁kernel	-9.71526
date	-9.7155
▁reset	-9.71557
▁Bad	-9.71579
▁multi	-9.71802
I	-9.72101
▁sigma	-9.7215
▁Could	-9.72159
▁Redirect	-9.72198
time	-9.72264
▁runas	-9.72441
▁addon	-9.72456
▁initial	-9.72661
▁family	-9.72907
▁certificate	-9.72987
▁translation	-9.73004
▁Connection	-9.7302
▁Check	-9.73052
▁TYPE	-9.73068
▁byte	-9.73086
▁Tag	-9.73197
▁widget	-9.73318
:\	-9.73344
▁ssh	-9.73523
▁callable	-9.73564
▁private	-9.73593
▁video	-9.73662
▁hook	-9.73705
log	-9.73765
▁Py	-9.73772
▁jid	-9.73965
▁single	-9.74047
▁tail	-9.7412
▁boto	-9.74194
▁comments	-9.74231
▁driver	-9.74265
▁mat	-9.74325
▁low	-9.74392
▁rev	-9.74414
▁chain	-9.7444
▁org	-9.74502
▁fetch	-9.74502
▁beta	-9.74595
▁enable	-9.74863
▁trigger	-9.74907
group	-9.7498
▁RE	-9.75101
▁pick	-9.75237
▁identifier	-9.75267
▁links	-9.75385
▁Z	-9.75473
▁grad	-9.75611
count	-9.75674
▁Unknown	-9.75759
▁End	-9.75802
="	-9.75813
▁web	-9.7582
▁integer	-9.75823
▁wraps	-9.75844
▁center	-9.76079
H	-9.76124
function	-9.76147
▁track	-9.76188
▁meg	-9.76197
▁short	-9.76267
▁Number	-9.76294
▁DB	-9.76343
▁states	-9.76446
▁Size	-9.76448
/'	-9.76457
▁previous	-9.76474
▁cs	-9.76642
▁'{0}	-9.7679
▁*=	-9.76834
obj	-9.76861
▁setattr	-9.76991
▁Network	-9.7705
vlc	-9.77057
▁reference	-9.77142
state	-9.77154
to	-9.77299
▁Filter	-9.77484
▁PATH	-9.77714
password	-9.77722
▁retry	-9.77742
▁upload	-9.77845
int	-9.77875
q	-9.77883
▁rules	-9.7794
L	-9.78038
base	-9.78187
▁qs	-9.78259
k	-9.78285
https	-9.78295
▁rstrip	-9.78327
▁un	-9.78453
▁PIPE	-9.78693
▁grid	-9.78797
▁symbols	-9.78814
▁Exist	-9.78907
▁permissions	-9.78925
▁generator	-9.78937
▁(%	-9.79102
▁removed	-9.79103
▁like	-9.7921
▁Task	-9.7924
▁coeff	-9.79378
▁requests	-9.79717
▁signature	-9.79751
N	-9.79831
▁bad	-9.79992
▁reader	-9.80408
▁but	-9.80545
server	-9.80614
...'	-9.80768
foo	-9.80898
▁doctype	-9.80917
retcode	-9.80917
▁writer	-9.80966
▁dump	-9.80998
▁space	-9.81025
▁dmp	-9.81041
▁called	-9.81154
▁'='	-9.81196
▁than	-9.81369
▁counts	-9.81488
▁50	-9.815
▁Option	-9.81523
utils	-9.81648
'\	-9.81779
▁Profile	-9.81829
▁reason	-9.81835
▁DIR	-9.82033
▁choice	-9.82069
▁1000	-9.82151
▁modified	-9.82203
▁Executi	-9.82231
▁'{0}'	-9.82252
▁Event	-9.82274
▁history	-9.8247
root	-9.82569
▁fwd	-9.82703
▁tasks	-9.82734
▁blocks	-9.82811
▁credentials	-9.82823
delete	-9.82852
application	-9.82878
▁overwrite	-9.83021
▁>>	-9.83061
output	-9.83085
▁iterable	-9.83167
▁Window	-9.8319
▁distance	-9.83193
▁Result	-9.83193
▁Order	-9.83349
▁cost	-9.83359
▁Start	-9.83539
num	-9.83697
▁threshold	-9.83702
▁tb	-9.83927
▁Instance	-9.83999
</	-9.84037
▁identity	-9.84052
▁strings	-9.84238
▁subs	-9.84269
▁Implemented	-9.84466
python	-9.84519
▁complete	-9.84539
▁'[	-9.84539
▁cell	-9.84713
▁nan	-9.84774
▁9	-9.84914
map	-9.84937
▁student	-9.84943
▁exploration	-9.85079
2'	-9.85082
▁poly	-9.8524
▁css	-9.85331
▁padding	-9.85333
F	-9.8539
▁clip	-9.85659
▁Item	-9.85777
▁perm	-9.85989
▁ii	-9.86045
▁complex	-9.86201
▁ver	-9.86202
▁globals	-9.86232
▁variables	-9.86271
!'	-9.86421
▁cached	-9.86507
▁symbol	-9.86511
▁reply	-9.86588
▁Status	-9.86594
▁blob	-9.86627
▁MAX	-9.86891
▁environment	-9.86932
▁prompt	-9.86976
▁operator	-9.87083
▁comp	-9.87127
▁descriptor	-9.87251
▁'{	-9.87407
M	-9.87526
▁bar	-9.87682
▁rng	-9.87855
▁instances	-9.87884
▁mul	-9.87988
E	-9.88004
▁Vector	-9.88045
▁Parse	-9.88108
▁typ	-9.88338
▁resources	-9.88495
▁mapper	-9.88697
▁free	-9.88848
▁simple	-9.88873
▁State	-9.88882
▁tol	-9.88884
▁validator	-9.88905
node	-9.8891
▁Process	-9.88987
▁plugins	-9.89001
▁sign	-9.89052
▁condition	-9.89221
▁Equal	-9.89234
func	-9.89273
▁Dir	-9.89289
▁sin	-9.8937
▁Course	-9.89486
▁handlers	-9.89489
▁timezone	-9.89594
▁methods	-9.8961
▁support	-9.8985
▁grains	-9.89968
▁pillar	-9.89988
txt	-9.90037
▁your	-9.9011
▁loss	-9.90274
Z	-9.90319
content	-9.90391
▁final	-9.90442
▁rval	-9.90481
▁layout	-9.90556
▁Please	-9.90596
▁custom	-9.90605
▁fake	-9.90781
<	-9.90825
▁glob	-9.90846
>\	-9.90962
'%	-9.91034
▁VERSION	-9.91063
▁timedelta	-9.91146
▁readline	-9.91179
▁datastore	-9.91424
split	-9.91561
▁indexer	-9.91599
stdout	-9.91638
▁got	-9.91708
▁std	-9.91836
▁Meta	-9.91839
▁control	-9.91841
▁Synta	-9.92101
▁DEBUG	-9.92439
▁partition	-9.92441
8'	-9.92653
▁urlparse	-9.92742
▁For	-9.9277
project	-9.92834
▁Cloud	-9.92853
▁ca	-9.93103
▁agent	-9.93242
▁absolute	-9.9331
▁dependencies	-9.93442
source	-9.93495
▁Unicod	-9.93528
▁entries	-9.93677
email	-9.93735
▁sol	-9.93755
▁dictionary	-9.93779
▁partial	-9.93892
▁listdir	-9.93901
▁cos	-9.9396
)\	-9.93963
▁csv	-9.93985
▁progress	-9.94139
ify	-9.94199
▁eeg	-9.94233
▁stdin	-9.94256
▁shift	-9.94313
▁href	-9.94424
▁DE	-9.94436
▁sha	-9.94456
▁runner	-9.9448
▁flat	-9.94541
▁counter	-9.94596
▁With	-9.94775
▁PY	-9.94935
▁been	-9.9508
▁services	-9.951
▁Token	-9.95124
▁ts	-9.95265
▁sources	-9.95417
dev	-9.95497
▁Cache	-9.95594
▁when	-9.95615
git	-9.95626
▁proto	-9.95698
▁chars	-9.95743
▁el	-9.95937
▁ascii	-9.95985
▁prob	-9.96028
▁cpu	-9.96039
▁basic	-9.96061
▁1024	-9.96124
cache	-9.96162
▁New	-9.96238
▁Setting	-9.9634
P	-9.96394
▁constant	-9.96423
▁nb	-9.96552
▁200	-9.96583
▁units	-9.9705
▁filenames	-9.97071
form	-9.97086
▁specs	-9.972
▁side	-9.97412
▁prep	-9.97518
▁versions	-9.9755
▁done	-9.97592
▁shared	-9.9762
▁relative	-9.97677
▁cloud	-9.97738
▁same	-9.97769
▁flow	-9.97797
▁hist	-9.97836
▁operation	-9.97847
▁added	-9.98034
service	-9.9813
▁Query	-9.98327
▁normal	-9.98419
▁walk	-9.9869
▁ok	-9.98785
▁{}	-9.98831
▁If	-9.98877
▁contact	-9.98969
▁stub	-9.98998
▁actions	-9.99162
▁bind	-9.99272
▁figure	-9.99335
[1	-9.99339
▁example	-9.99396
astype	-9.99416
▁security	-9.99454
▁fixed	-9.99465
axis	-9.99542
▁pd	-9.99564
▁round	-9.99576
▁pip	-9.99688
▁seek	-9.99694
▁tables	-9.99695
▁vol	-9.99725
▁subnet	-9.99767
▁given	-9.99879
▁console	-9.99944
min	-9.99951
▁makedirs	-9.99966
▁activity	-10.0006
▁Matrix	-10.0008
▁put	-10.0012
▁rank	-10.0013
▁remaining	-10.0025
▁props	-10.0026
format	-10.003
▁asset	-10.0037
▁discovery	-10.0038
▁destination	-10.0046
▁present	-10.0053
▁flush	-10.0059
+	-10.0075
▁facts	-10.0078
▁pair	-10.0089
='	-10.0093
▁ds	-10.0102
▁'*'	-10.0104
▁ones	-10.0104
username	-10.0107
▁deg	-10.011
▁epoch	-10.0125
32'	-10.0128
ascii	-10.0132
▁12	-10.0135
xml	-10.0138
▁Resource	-10.0146
update	-10.0148
▁backup	-10.0149
▁docs	-10.0155
▁queryset	-10.016
▁IP	-10.0162
success	-10.017
▁keyword	-10.0172
▁provided	-10.018
▁<<	-10.0181
{	-10.0187
array	-10.0189
shutil	-10.0191
▁gt	-10.0193
▁64	-10.0202
ref	-10.0203
▁vertices	-10.0204
▁more	-10.0206
▁theme	-10.0208
▁gateway	-10.0217
▁ips	-10.0262
▁'0'	-10.0266
bar	-10.027
▁Column	-10.0271
▁Source	-10.0285
os	-10.0343
▁txt	-10.0346
▁div	-10.0349
▁episode	-10.035
▁inf	-10.0353
▁review	-10.0355
▁encoded	-10.0361
▁helper	-10.0367
▁lst	-10.0375
link	-10.039
▁executable	-10.0421
end	-10.0423
▁extensions	-10.0428
▁Assert	-10.0454
▁font	-10.0461
▁dec	-10.0463
▁scalar	-10.0466
ignore	-10.0472
▁static	-10.0479
▁Host	-10.0487
▁ns	-10.0488
▁testing	-10.0488
▁sp	-10.0509
▁Manager	-10.0512
▁dns	-10.0512
▁nt	-10.0532
▁roles	-10.0537
▁Default	-10.054
▁loaded	-10.0577
▁tmin	-10.0596
▁netloc	-10.0616
▁expression	-10.0618
▁Device	-10.0627
▁Code	-10.0633
▁co	-10.0635
float	-10.0649
▁passed	-10.0652
▁Logger	-10.0657
10	-10.0658
()	-10.0658
▁tempfile	-10.0669
▁'&	-10.0672
▁coord	-10.0675
▁rheader	-10.0699
▁mail	-10.0709
▁tablename	-10.071
▁Argument	-10.0714
▁bot	-10.0719
object	-10.072
▁pairs	-10.0722
▁const	-10.0726
▁pkgs	-10.0727
4'	-10.0729
description	-10.073
▁keywords	-10.0741
▁gpu	-10.0761
▁cat	-10.0764
ip	-10.0765
▁reduce	-10.0769
▁Log	-10.077
▁bc	-10.077
V	-10.0776
▁/=	-10.0787
▁fft	-10.0803
▁edit	-10.0815
▁fix	-10.0828
▁'(	-10.083
▁flatten	-10.0832
▁tempdir	-10.0835
not	-10.0839
▁ERROR	-10.0844
▁...	-10.0847
▁Input	-10.0858
▁none	-10.0869
▁translate	-10.0871
▁kwds	-10.0885
▁definition	-10.09
app	-10.0909
▁matching	-10.0914
al	-10.0917
SON	-10.0923
▁flavor	-10.0923
▁Paths	-10.0924
▁Is	-10.0926
▁duration	-10.0929
use	-10.0942
▁Does	-10.0952
ID	-10.0956
▁formatter	-10.0967
▁average	-10.0969
▁Are	-10.097
▁rand	-10.0973
▁saltenv	-10.0975
,\	-10.0975
▁ops	-10.0998
▁strict	-10.1002
▁USER	-10.1014
▁SSL	-10.1025
▁apps	-10.1053
ob	-10.1056
▁question	-10.1059
▁compare	-10.1067
▁Level	-10.1072
▁feed	-10.1073
auto	-10.1084
add	-10.1092
▁terms	-10.1123
▁members	-10.1131
▁chart	-10.1139
▁tab	-10.1142
▁needs	-10.1142
▁scenario	-10.1158
▁eps	-10.117
▁IMPL	-10.1179
▁On	-10.1184
▁Of	-10.1202
▁FLAGS	-10.1206
T	-10.1212
▁stride	-10.1215
len	-10.1219
msg	-10.1224
▁scores	-10.1235
▁records	-10.1239
▁LOGGER	-10.124
▁gcode	-10.1244
▁ring	-10.1246
POST	-10.126
▁cmap	-10.1261
▁sel	-10.127
old	-10.1271
▁Mode	-10.1273
▁minion	-10.1274
▁priority	-10.1275
▁drop	-10.1298
▁pages	-10.1299
▁nobs	-10.1308
▁machine	-10.132
request	-10.1323
val	-10.1325
▁related	-10.1343
▁precision	-10.1353
▁reactor	-10.1357
▁work	-10.1359
▁icon	-10.1366
▁Address	-10.138
▁threads	-10.1389
▁gl	-10.142
win	-10.1426
▁switch	-10.1429
▁perms	-10.143
▁logical	-10.1431
▁fullname	-10.1433
▁clone	-10.1433
▁exec	-10.1434
▁Expr	-10.1475
metavar	-10.1493
▁failure	-10.15
▁ndarray	-10.15
env	-10.1505
▁future	-10.151
▁memory	-10.1515
▁structure	-10.1525
▁tmpdir	-10.1527
▁euclidean	-10.1527
stderr	-10.1533
▁retcode	-10.1533
▁resolve	-10.1536
from	-10.1553
▁Loops	-10.1566
▁FILE	-10.1573
▁hour	-10.1577
*	-10.1583
▁known	-10.1594
▁fixture	-10.1601
▁Begin	-10.1602
▁high	-10.161
model	-10.1617
▁answer	-10.1628
▁tenant	-10.1631
▁Director	-10.1635
▁30	-10.164
▁sc	-10.1647
▁Qt	-10.1653
▁fragment	-10.1664
▁detail	-10.1664
▁cast	-10.1665
▁cleanup	-10.1675
▁tp	-10.1681
▁cond	-10.1692
▁Keys	-10.1703
▁elements	-10.173
▁Configuration	-10.173
▁Date	-10.173
▁Record	-10.1735
show	-10.1741
▁coords	-10.1744
▁mem	-10.1758
module	-10.1774
▁candidate	-10.1775
▁expect	-10.1778
▁suite	-10.1778
input	-10.1786
install	-10.1786
▁configure	-10.1789
▁ec	-10.1794
▁move	-10.1794
▁ast	-10.1797
filter	-10.1799
▁js	-10.1811
src	-10.1814
▁could	-10.1819
▁Layer	-10.1824
true	-10.1839
▁normalized	-10.1842
▁saved	-10.1843
adius	-10.1846
?	-10.1848
▁refresh	-10.185
auth	-10.1857
▁Page	-10.1858
sfreq	-10.1866
▁fast	-10.1888
▁Frame	-10.189
▁Array	-10.1893
course	-10.1904
▁delay	-10.1906
▁'>	-10.191
▁accept	-10.1913
▁Link	-10.1919
▁contains	-10.1926
etc	-10.1929
▁surf	-10.1937
▁Thread	-10.194
▁monitor	-10.1947
▁Load	-10.195
▁multiple	-10.1959
▁One	-10.1959
▁cherrypy	-10.1962
query	-10.197
▁Count	-10.1971
▁Cfunction	-10.1973
▁bbox	-10.1974
tag	-10.1977
▁scan	-10.1979
▁'1'	-10.1986
label	-10.1986
▁statement	-10.1993
▁Validation	-10.2009
▁nn	-10.2012
▁sent	-10.2017
▁factors	-10.2036
▁urls	-10.206
event	-10.2062
▁tok	-10.2069
▁Method	-10.2074
▁pat	-10.2076
GET	-10.2078
bin	-10.2085
▁strftime	-10.2094
▁prepare	-10.2097
▁period	-10.21
create	-10.211
▁App	-10.2112
▁Call	-10.2115
▁scipy	-10.2119
admin	-10.2133
field	-10.2136
ies	-10.2163
▁functions	-10.2177
▁All	-10.2195
▁charset	-10.2213
▁concatenate	-10.2215
local	-10.2235
▁latest	-10.2235
▁tools	-10.2237
▁configured	-10.2243
▁sa	-10.2245
▁tabs	-10.2246
▁ct	-10.2287
▁instead	-10.2298
▁patterns	-10.2305
▁album	-10.2315
▁{1}	-10.2321
read	-10.2338
▁15	-10.2349
▁functools	-10.235
▁dic	-10.2357
▁mu	-10.2359
▁Factory	-10.2366
▁Random	-10.2367
▁And	-10.2371
▁noise	-10.2374
▁iterator	-10.2409
▁Stream	-10.2417
▁Action	-10.2417
j	-10.2424
net	-10.2433
ED	-10.2435
▁null	-10.2438
▁vdi	-10.2438
▁seqs	-10.2452
▁gamma	-10.2457
target	-10.2466
▁helpers	-10.2479
▁'%(	-10.2493
▁gens	-10.2494
manager	-10.25
▁menu	-10.2506
▁author	-10.2508
var	-10.2525
▁HAS	-10.2558
▁sync	-10.2562
▁geometry	-10.2563
▁person	-10.2564
linalg	-10.2575
▁linenum	-10.2577
▁Auth	-10.2623
▁categories	-10.2624
▁Document	-10.2626
ation	-10.264
▁major	-10.2642
▁Build	-10.2643
▁cuda	-10.2644
▁ravel	-10.2668
▁layers	-10.267
▁tmax	-10.267
▁kb	-10.2675
▁Sequence	-10.2681
▁bound	-10.2682
▁bins	-10.2684
▁disable	-10.2688
00'	-10.2695
▁player	-10.2695
▁override	-10.2705
▁ipv	-10.2713
▁quiet	-10.2713
▁constants	-10.2718
▁Len	-10.2722
▁SIZE	-10.2723
▁outfile	-10.2728
▁angle	-10.2728
▁country	-10.2735
mode	-10.2744
▁cl	-10.2747
▁bit	-10.2755
▁acl	-10.2763
▁deepcopy	-10.277
▁problem	-10.2771
▁want	-10.2786
cloud	-10.279
values	-10.2794
pkg	-10.2804
▁codon	-10.2811
▁hidden	-10.2821
▁theta	-10.2831
▁dsk	-10.2844
▁deps	-10.2846
▁box	-10.2865
▁training	-10.2866
▁filtered	-10.2868
salt	-10.287
son	-10.2876
build	-10.2877
▁guess	-10.2881
▁draw	-10.2893
▁updates	-10.2906
▁primary	-10.2906
▁blank	-10.2907
▁"'	-10.2915
xe	-10.2918
▁maximum	-10.2932
wb	-10.2945
▁transaction	-10.2945
▁Format	-10.2947
▁Miss	-10.2951
th	-10.2978
▁mimetype	-10.298
▁Segment	-10.2992
png	-10.2997
▁256	-10.3004
▁rhs	-10.3004
▁mi	-10.3006
▁Names	-10.3014
▁sympy	-10.3024
total	-10.3025
▁positive	-10.3034
▁two	-10.3036
▁ep	-10.3036
▁Minu	-10.3038
▁dims	-10.3042
▁FROM	-10.3049
▁fasta	-10.3056
▁border	-10.3058
▁400	-10.3061
▁Session	-10.3062
▁denom	-10.3063
▁vec	-10.3072
▁desired	-10.3119
▁randint	-10.3119
sum	-10.3125
created	-10.3144
▁Update	-10.3147
▁resize	-10.3152
▁cv	-10.3172
▁Header	-10.3174
▁repeat	-10.3182
▁external	-10.3185
conf	-10.3188
▁NO	-10.3196
▁tar	-10.3209
▁disabled	-10.3226
▁export	-10.323
▁SQL	-10.3231
▁worker	-10.3232
▁Propert	-10.3233
▁Core	-10.3248
HTTP	-10.3258
torage	-10.3268
▁imag	-10.3272
▁metrics	-10.3288
▁freqs	-10.3307
▁Map	-10.331
td	-10.3312
▁codes	-10.3324
▁utc	-10.3328
master	-10.333
7	-10.3334
▁addresses	-10.3334
▁artist	-10.335
▁inverse	-10.3351
▁direction	-10.3351
▁pr	-10.3352
▁prec	-10.3354
▁presence	-10.3363
▁gid	-10.3403
▁lstrip	-10.342
▁Variable	-10.3439
▁Params	-10.3448
▁quality	-10.3453
▁Intersection	-10.3466
▁program	-10.3476
▁percent	-10.3486
length	-10.3491
nvocation	-10.3516
▁inp	-10.3517
▁evaluate	-10.3525
pos	-10.3529
▁pickle	-10.3542
▁hours	-10.3546
failed	-10.3553
shape	-10.3557
▁exe	-10.3559
files	-10.356
▁ix	-10.3566
▁notification	-10.3566
invalid	-10.3571
▁inds	-10.3571
▁dependency	-10.3577
▁formatted	-10.358
▁ptr	-10.3583
▁recursive	-10.3585
▁cleaned	-10.3589
▁Store	-10.3599
▁cm	-10.3601
▁browser	-10.3603
▁Location	-10.3614
▁retries	-10.3617
▁collect	-10.3629
▁128	-10.3639
▁mime	-10.3651
mpty	-10.3653
▁inline	-10.3655
almost	-10.3677
▁sudo	-10.3689
▁qual	-10.3697
▁canvas	-10.3718
▁thing	-10.3723
▁distribution	-10.3727
▁PREFIX	-10.3736
▁represent	-10.374
▁middle	-10.374
▁roots	-10.3748
▁vim	-10.376
profile	-10.3776
one	-10.3782
tags	-10.3782
▁otu	-10.3784
▁Tree	-10.3791
▁decimal	-10.3796
▁lc	-10.38
▁Stop	-10.381
▁ma	-10.381
▁First	-10.3811
▁binding	-10.3818
▁Use	-10.3825
level	-10.3827
▁registration	-10.383
▁tokenize	-10.3831
replace	-10.3834
by	-10.384
▁0.2	-10.384
▁Search	-10.3851
search	-10.3857
▁transport	-10.387
▁rtol	-10.3873
▁My	-10.3892
sep	-10.3901
print	-10.3905
resource	-10.3908
▁Url	-10.3911
▁bottom	-10.3913
▁price	-10.3917
▁crop	-10.392
bytes	-10.3923
▁strides	-10.3924
▁uint	-10.3924
en	-10.3932
▁fileobj	-10.3943
▁need	-10.3948
▁digits	-10.395
▁possible	-10.3952
▁arch	-10.3958
est	-10.3968
body	-10.3978
▁minimum	-10.3982
▁into	-10.3982
▁docstring	-10.3995
▁formats	-10.4013
▁Color	-10.4014
page	-10.4016
▁INFO	-10.4022
▁retval	-10.4026
▁sec	-10.4031
▁ra	-10.4044
▁neg	-10.4047
R	-10.4049
▁Expect	-10.4053
▁ident	-10.4058
▁Int	-10.406
package	-10.4075
boto	-10.4076
ch	-10.408
▁pipeline	-10.4085
▁servers	-10.4105
▁Decode	-10.4107
▁chr	-10.4118
▁rename	-10.4127
▁Control	-10.4128
▁dry	-10.413
▁Delete	-10.4138
ssh	-10.4149
▁scene	-10.4149
▁exog	-10.4163
+'	-10.4168
▁24	-10.4168
▁named	-10.4171
join	-10.4177
▁age	-10.4181
▁si	-10.421
▁inference	-10.421
last	-10.4212
▁Port	-10.4214
',	-10.4216
▁Angle	-10.4218
▁enc	-10.422
▁so	-10.423
▁finder	-10.4237
▁sizes	-10.4238
▁serial	-10.4258
▁ctype	-10.4271
▁parallel	-10.4277
▁dirpath	-10.4277
▁arrays	-10.429
▁choices	-10.4311
▁correct	-10.4318
▁mtime	-10.4321
▁Width	-10.4322
▁modname	-10.4332
▁limits	-10.4335
treeio	-10.435
▁levels	-10.4353
▁DATA	-10.4356
▁matplotlib	-10.4356
▁ccx	-10.4365
▁recipient	-10.437
mod	-10.4381
unknown	-10.439
▁candidates	-10.439
▁Bytes	-10.439
response	-10.4404
core	-10.442
▁caller	-10.4424
▁compress	-10.4424
▁indexes	-10.4425
filename	-10.4426
▁Label	-10.4428
▁compat	-10.4441
▁locations	-10.4452
▁phi	-10.4463
▁aliases	-10.4479
br	-10.4482
▁issubclass	-10.4492
▁dummy	-10.4495
▁delimiter	-10.4497
▁button	-10.4502
▁diag	-10.4504
▁double	-10.4509
▁DOMAIN	-10.4516
▁collections	-10.4539
▁dispatch	-10.4539
▁oauth	-10.4548
▁solve	-10.4557
▁validation	-10.4564
▁fk	-10.458
▁async	-10.4586
site	-10.462
timestamp	-10.4621
width	-10.4631
▁Multi	-10.4643
▁Block	-10.4646
▁ports	-10.4652
▁FORMAT	-10.4656
script	-10.466
▁Email	-10.4664
▁Graph	-10.4666
▁PORT	-10.4671
▁OK	-10.4671
▁minutes	-10.4677
▁Return	-10.4684
▁many	-10.469
▁lb	-10.4694
▁sym	-10.4694
st	-10.4699
▁verbosity	-10.4703
gz	-10.4709
if	-10.4711
▁clf	-10.4712
▁etag	-10.4722
▁mp	-10.4743
▁bem	-10.4749
▁Or	-10.475
▁'?'	-10.4755
color	-10.4761
▁Certificate	-10.4773
instance	-10.4803
▁Center	-10.4817
▁changeset	-10.4828
▁segments	-10.4838
slim	-10.4841
▁least	-10.4841
▁STATUS	-10.4864
▁cp	-10.4866
language	-10.4868
▁NOT	-10.4878
▁ordering	-10.4879
▁Float	-10.4883
▁following	-10.4892
▁activation	-10.4898
▁pts	-10.4901
▁xblock	-10.4907
▁ori	-10.4915
▁cmp	-10.4916
18	-10.4919
▁impl	-10.4926
▁Permission	-10.4928
▁Read	-10.4944
▁foo	-10.4944
▁Application	-10.495
▁languages	-10.496
▁standard	-10.4969
▁CACHE	-10.498
▁dep	-10.4983
client	-10.4992
▁migrate	-10.4993
▁Project	-10.4994
▁Web	-10.4995
▁Integer	-10.4995
spec	-10.5
up	-10.5008
tmp	-10.5027
▁gf	-10.5036
import	-10.5047
▁Fs	-10.5063
▁shed	-10.5069
www	-10.507
▁Match	-10.5072
▁vlan	-10.5072
▁entities	-10.5092
▁Description	-10.5108
▁inventory	-10.5111
▁catalog	-10.5118
▁objs	-10.5129
▁crypto	-10.5133
▁compiler	-10.5144
▁Files	-10.5149
▁View	-10.515
▁pending	-10.5151
▁plural	-10.5155
▁pow	-10.5161
▁signed	-10.5174
▁exact	-10.5177
▁Operation	-10.5177
▁amount	-10.5177
▁estimator	-10.5177
▁Spec	-10.519
▁catch	-10.519
▁describe	-10.5197
location	-10.52
▁Num	-10.5206
▁Re	-10.521
▁back	-10.522
method	-10.5226
part	-10.523
▁upgrade	-10.5233
▁Can	-10.5235
▁avg	-10.5237
PATH	-10.5247
▁vocab	-10.5247
▁tzinfo	-10.5252
▁dicts	-10.5254
▁Str	-10.5273
509	-10.528
▁lat	-10.5281
▁notify	-10.5282
▁pixel	-10.5285
network	-10.5299
▁maybe	-10.5318
▁bias	-10.532
▁internal	-10.5322
▁solution	-10.5325
▁phase	-10.5328
▁con	-10.533
▁milestone	-10.5344
▁draft	-10.5348
▁character	-10.5357
▁ordered	-10.5377
▁echo	-10.538
▁requirements	-10.5385
first	-10.5388
doc	-10.5398
▁Mul	-10.5405
idx	-10.5406
▁numbers	-10.5406
▁3.0	-10.5437
▁equals	-10.544
▁loglevel	-10.5443
res	-10.5462
▁mt	-10.5468
▁requested	-10.548
▁masked	-10.5492
▁tgt	-10.5496
▁\\	-10.5496
▁restore	-10.5506
▁quota	-10.5506
▁rep	-10.5509
▁dom	-10.5509
items	-10.5515
&	-10.5518
(%	-10.5518
▁rs	-10.5527
task	-10.5537
lines	-10.5542
def	-10.5544
▁attrib	-10.5552
▁selected	-10.5559
><	-10.5562
▁algorithm	-10.5564
nt	-10.5566
▁AF	-10.5567
system	-10.5568
▁Geometry	-10.5572
▁Us	-10.5574
▁selector	-10.5575
▁organisation	-10.5578
▁destroy	-10.5578
▁may	-10.5583
="%	-10.5593
▁Parameter	-10.5597
▁adapter	-10.5601
▁small	-10.5601
item	-10.5609
▁swap	-10.5622
▁Plugin	-10.5623
▁Seq	-10.5646
options	-10.5651
▁Access	-10.5663
▁unknown	-10.5686
▁down	-10.569
▁alphabet	-10.5691
▁atol	-10.5695
▁bounds	-10.5697
▁recv	-10.5698
▁imp	-10.57
▁acc	-10.5704
▁subscription	-10.5707
▁matched	-10.5728
▁deployment	-10.5731
▁nodelist	-10.5735
▁receiver	-10.5741
▁epsilon	-10.5745
▁without	-10.575
encode	-10.5767
▁Make	-10.577
▁sl	-10.5774
▁Series	-10.579
?'	-10.58
[0	-10.5805
hrm	-10.5813
offset	-10.5813
▁neighbors	-10.5814
▁Run	-10.5814
12	-10.5829
se	-10.5839
▁issue	-10.585
hostname	-10.5851
▁IS	-10.5861
▁Iteration	-10.5862
▁connected	-10.587
▁dat	-10.5877
▁mkdir	-10.5878
▁each	-10.5881
mask	-10.5885
number	-10.5899
▁interactive	-10.5901
▁preload	-10.591
▁push	-10.5927
▁urlopen	-10.5928
keys	-10.5929
▁STRING	-10.5932
▁Failure	-10.5935
▁examples	-10.5936
▁fallback	-10.594
▁generic	-10.5955
▁communicate	-10.5961
▁too	-10.5964
▁concat	-10.5966
▁negative	-10.5967
▁reload	-10.5967
▁letter	-10.5971
▁transpose	-10.5973
▁xi	-10.5978
hash	-10.5984
▁minor	-10.5984
▁truncate	-10.6009
sort	-10.6016
▁needed	-10.602
▁tile	-10.6025
▁virtualname	-10.6029
▁returncode	-10.6041
▁alt	-10.6042
the	-10.6057
▁Extension	-10.6059
django	-10.6064
▁readable	-10.6074
▁Interface	-10.6084
block	-10.609
▁processor	-10.6106
▁Account	-10.611
address	-10.611
▁cb	-10.6122
|=	-10.6124
37	-10.6125
▁domains	-10.6126
▁capacity	-10.6126
▁Unit	-10.6141
▁poll	-10.6144
▁clusters	-10.6145
G	-10.6158
▁loops	-10.6162
▁between	-10.6162
row	-10.617
▁rr	-10.6173
▁ps	-10.6181
range	-10.6181
▁Local	-10.6188
▁resampled	-10.6189
▁sabnzbd	-10.619
▁pretty	-10.6193
▁bases	-10.6194
▁execution	-10.6198
▁workflow	-10.6199
▁disp	-10.6199
▁Pool	-10.6208
▁until	-10.6214
30	-10.6215
functional	-10.6228
token	-10.623
▁shuffle	-10.623
@	-10.6232
▁Product	-10.6233
0'	-10.6234
▁Callback	-10.6236
▁encoder	-10.6238
▁Endpoint	-10.6243
▁nested	-10.6247
▁bootstrap	-10.6253
▁"{0}"	-10.6257
▁lhs	-10.6258
▁Volume	-10.6261
▁dashboard	-10.6272
▁Deprecation	-10.6287
▁selection	-10.6288
▁funcs	-10.6289
▁information	-10.629
9	-10.6291
▁serialize	-10.6294
▁super	-10.6299
yes	-10.6303
▁audio	-10.6308
context	-10.6314
▁subplot	-10.6322
▁aws	-10.6323
▁router	-10.6326
▁visible	-10.633
▁square	-10.6338
params	-10.634
U	-10.6343
▁magic	-10.6344
▁rmtree	-10.6365
▁pw	-10.6365
▁ceil	-10.6376
▁trim	-10.6377
▁stmt	-10.638
▁contain	-10.6385
▁SERVER	-10.6389
▁hdr	-10.6414
itertools	-10.6416
▁INET	-10.6416
next	-10.6424
▁kwarg	-10.6429
▁sh	-10.6433
▁Collection	-10.6441
▁Step	-10.6451
▁Api	-10.6468
▁sensor	-10.6488
▁minute	-10.649
public	-10.6491
▁pointer	-10.6492
▁distances	-10.6495
▁positions	-10.65
js	-10.6507
▁projects	-10.6515
▁Print	-10.6525
check	-10.6531
▁cross	-10.6535
▁staff	-10.6537
▁defined	-10.6543
WHERE	-10.6546
▁500	-10.6551
▁windows	-10.6577
▁world	-10.6578
▁forum	-10.6582
▁authenticated	-10.6585
raw	-10.6586
▁faces	-10.6592
▁overrides	-10.6598
▁lo	-10.6611
▁Password	-10.6625
space	-10.6632
plugins	-10.6637
▁dates	-10.664
▁Encode	-10.6643
▁hug	-10.6647
zip	-10.6648
deleted	-10.666
▁good	-10.6661
▁csrf	-10.6671
▁opener	-10.6676
▁'@'	-10.6677
▁Target	-10.6678
load	-10.6685
▁DIV	-10.6687
▁ui	-10.6704
▁pieces	-10.6709
▁tup	-10.6722
ING	-10.6725
▁ticket	-10.6754
▁corner	-10.6759
ND	-10.6774
▁realm	-10.6774
▁prod	-10.678
▁builtin	-10.6781
▁Copy	-10.6785
▁frag	-10.6792
▁slices	-10.6795
release	-10.6799
▁TYPES	-10.6802
volume	-10.6804
▁Identit	-10.6805
▁wsgi	-10.681
temp	-10.6811
▁Out	-10.682
▁ROOT	-10.682
device	-10.6825
▁screen	-10.6825
▁smart	-10.6842
▁cr	-10.6856
▁cap	-10.6862
▁Comment	-10.6865
▁aggregate	-10.6866
▁cut	-10.687
off	-10.6871
▁either	-10.6872
▁interfaces	-10.6876
▁enrollment	-10.6892
▁getcwd	-10.6896
▁boundary	-10.6901
▁attach	-10.6912
fopen	-10.6912
self	-10.6924
W	-10.6933
▁0.01	-10.6943
static	-10.6944
▁BASE	-10.6944
▁serializer	-10.6946
re	-10.6957
▁align	-10.6958
▁Doc	-10.6962
▁attempts	-10.6969
▁templates	-10.6969
▁panel	-10.6974
▁EMAIL	-10.6978
▁ignored	-10.6978
rom	-10.6991
▁Ds	-10.6996
▁Close	-10.6998
sample	-10.7001
▁Points	-10.7001
▁Package	-10.7001
▁specify	-10.7009
▁etree	-10.7011
▁cutoff	-10.7024
▁merged	-10.7028
▁translations	-10.7029
▁Queue	-10.7029
▁Reader	-10.7031
▁secure	-10.7034
▁season	-10.7036
▁creation	-10.7047
▁80	-10.7052
▁ground	-10.7058
▁leaf	-10.7059
▁MAP	-10.7066
display	-10.7073
expanduser	-10.7075
utcnow	-10.7075
▁Virtual	-10.7084
▁NS	-10.7085
▁Pv	-10.7092
▁ALL	-10.7099
▁restart	-10.71
▁cancel	-10.7107
▁expires	-10.7108
order	-10.7112
▁pkt	-10.7114
▁inside	-10.7115
localhost	-10.7116
style	-10.7117
64'	-10.712
▁cart	-10.7121
▁what	-10.7128
▁eta	-10.7147
▁Col	-10.7156
full	-10.7163
▁META	-10.7175
▁off	-10.7191
none	-10.7195
▁Obj	-10.7195
▁registered	-10.7206
▁attachment	-10.7208
▁TO	-10.7208
template	-10.7211
▁policies	-10.723
false	-10.7233
▁ica	-10.7238
▁unquote	-10.7243
▁creds	-10.7246
▁Entry	-10.7251
inv	-10.7254
limit	-10.7257
unit	-10.7259
post	-10.7286
▁Reg	-10.729
▁cg	-10.7295
view	-10.7303
('	-10.7306
left	-10.7312
):	-10.7313
▁gcd	-10.7316
▁datacenter	-10.7317
debug	-10.732
▁schedule	-10.7325
}\	-10.7329
▁qos	-10.734
▁')'	-10.7344
▁Max	-10.7355
▁flask	-10.7355
▁take	-10.7364
▁boolean	-10.7373
▁HOST	-10.7373
▁sess	-10.7394
▁sections	-10.7397
▁cohort	-10.7406
▁enum	-10.7407
▁Bot	-10.7409
▁refs	-10.7421
▁Role	-10.7422
col	-10.7424
▁coeffs	-10.7431
O	-10.7432
▁sentence	-10.7442
▁logs	-10.745
▁sid	-10.7456
▁difference	-10.7458
▁additional	-10.7465
",	-10.7473
▁LC	-10.7474
▁Site	-10.7476
▁Select	-10.7478
▁Channel	-10.7479
▁Args	-10.7482
▁IN	-10.7486
io	-10.7488
▁since	-10.7489
usr	-10.749
▁subdir	-10.7491
SELECT	-10.7493
▁currency	-10.7503
▁whitespace	-10.7503
▁decoded	-10.7525
▁Feature	-10.7526
▁partitions	-10.7527
▁sequences	-10.754
option	-10.7546
names	-10.7546
▁detect	-10.7564
▁Media	-10.7566
▁SERVICE	-10.7568
▁initializer	-10.7573
▁hooks	-10.7573
▁Word	-10.7574
▁strategy	-10.7575
select	-10.7579
▁utf	-10.7582
▁false	-10.7583
▁background	-10.7591
).	-10.7592
▁Transform	-10.7592
▁simplify	-10.7604
▁pwd	-10.7609
▁implemented	-10.7631
age	-10.7632
16	-10.7633
domain	-10.7635
▁coef	-10.7645
▁compression	-10.7659
▁passwd	-10.766
right	-10.7662
▁bulk	-10.7671
▁corr	-10.7671
▁mappings	-10.7671
metadata	-10.7672
▁Stack	-10.7682
settings	-10.7683
▁TEST	-10.7693
▁TIME	-10.7695
▁Bit	-10.7703
uuid	-10.7705
▁Wrapper	-10.7712
▁runtime	-10.7713
safe	-10.7715
groups	-10.7716
physical	-10.7721
▁buff	-10.7724
▁40	-10.7725
▁mid	-10.7733
errors	-10.7739
3'	-10.7745
▁annotations	-10.7749
▁mb	-10.7754
▁tester	-10.776
▁urlencode	-10.7765
▁Conv	-10.7768
▁Epoch	-10.7771
▁completion	-10.7777
▁cf	-10.7779
▁ans	-10.7792
board	-10.7795
▁gap	-10.7805
▁datasets	-10.7816
▁sss	-10.7818
▁pdf	-10.782
▁Remove	-10.7825
▁whitelist	-10.7831
▁Ref	-10.7833
▁follow	-10.784
▁submit	-10.7842
2\	-10.7846
▁directive	-10.7854
▁baseline	-10.7855
▁est	-10.7857
▁special	-10.7869
▁Download	-10.7871
▁cnt	-10.788
▁ev	-10.79
job	-10.7904
▁nonzero	-10.7905
tr	-10.7911
▁specific	-10.7913
00\	-10.7938
▁individual	-10.7944
▁unittest	-10.7945
▁predict	-10.7961
encoding	-10.7962
remove	-10.7967
▁reject	-10.7973
▁certs	-10.7978
▁exam	-10.7989
▁connections	-10.799
▁11	-10.7996
>%	-10.7998
any	-10.8
▁grade	-10.801
▁Split	-10.8011
▁Buffer	-10.8011
▁bundle	-10.8012
year	-10.8013
▁Formatte	-10.8021
▁iso	-10.8033
day	-10.8038
▁Zero	-10.8041
▁abort	-10.8045
▁Prefix	-10.8051
▁combine	-10.8051
err	-10.8052
▁Rule	-10.8072
▁psd	-10.8074
▁unlink	-10.808
▁received	-10.8084
▁separator	-10.81
▁creator	-10.8102
▁cycle	-10.8107
▁parents	-10.8124
▁listen	-10.8127
head	-10.8129
match	-10.8132
▁SEED	-10.8134
private	-10.8144
▁Poly	-10.8144
github	-10.8154
chdir	-10.8158
div	-10.8159
stream	-10.8161
▁characters	-10.8166
01	-10.8169
▁book	-10.8175
▁xs	-10.8175
5'	-10.8176
disk	-10.8178
▁pandas	-10.8179
▁Protocol	-10.8195
digit	-10.8202
▁recipients	-10.8205
▁lazy	-10.8205
timeout	-10.8222
▁Folder	-10.8226
▁LANGUAGE	-10.8229
▁circle	-10.8238
▁samp	-10.824
▁lengths	-10.824
simple	-10.8241
▁regexp	-10.8242
▁threading	-10.8245
▁topo	-10.8248
▁jinja	-10.8251
▁Proxy	-10.8257
include	-10.8263
▁writable	-10.8266
▁tax	-10.8267
▁Elements	-10.8267
reg	-10.8268
step	-10.8268
extra	-10.8272
▁vectors	-10.8284
▁floor	-10.8314
▁pt	-10.8316
▁timer	-10.8324
fun	-10.8326
write	-10.8331
zone	-10.8335
tar	-10.8343
▁zipfile	-10.8345
▁sg	-10.8351
▁dn	-10.8361
▁half	-10.8362
▁Nodes	-10.8362
▁mods	-10.8363
▁fif	-10.8373
▁constructor	-10.8375
▁Timeout	-10.8386
diff	-10.8389
▁absent	-10.839
▁ranges	-10.839
parent	-10.8397
decode	-10.8402
▁cidr	-10.8402
parse	-10.8402
▁'+'	-10.8407
closest	-10.8415
feature	-10.8421
▁TOKEN	-10.8424
▁Loo	-10.8425
can	-10.8426
▁quantity	-10.8432
▁facility	-10.8432
▁replacement	-10.8446
▁popen	-10.845
▁volumes	-10.8454
bool	-10.8455
▁outer	-10.8489
▁pprint	-10.8491
▁csr	-10.8494
▁intersection	-10.8499
▁Librar	-10.8509
▁Case	-10.8509
▁Reference	-10.851
▁kill	-10.8511
▁cd	-10.8515
!	-10.8516
headers	-10.8516
iter	-10.8523
▁po	-10.8529
▁dig	-10.8537
▁conditions	-10.8537
▁escaped	-10.8541
▁vertex	-10.8547
▁fgraph	-10.8552
▁builtins	-10.8564
▁https	-10.8568
▁fnmatch	-10.8575
▁hsl	-10.8582
xc	-10.8587
▁mpl	-10.8588
▁annotation	-10.8608
▁tt	-10.8609
▁Custom	-10.861
▁Onl	-10.8614
▁ty	-10.8617
▁manifest	-10.8629
digest	-10.8631
DB	-10.8633
▁0.001	-10.8639
▁repl	-10.8643
▁'"	-10.8644
▁eog	-10.8649
▁takes	-10.8651
▁prefixes	-10.8652
▁numobj	-10.8655
▁sheet	-10.866
▁logfile	-10.8661
▁critical	-10.8675
▁iterations	-10.8678
locale	-10.8689
DIR	-10.8692
▁intercept	-10.8704
▁spaces	-10.8706
▁Lock	-10.8707
mean	-10.8715
▁lon	-10.8726
▁Send	-10.8727
▁design	-10.8731
least	-10.8732
▁LENGTH	-10.8736
▁consul	-10.874
▁hide	-10.8766
▁Interrupt	-10.8767
▁Figure	-10.8767
▁Install	-10.8769
▁don	-10.8771
▁Win	-10.8773
▁scopes	-10.8774
char	-10.8774
▁middleware	-10.8778
only	-10.8782
36	-10.8785
home	-10.8795
ummy	-10.8796
▁TABLE	-10.8797
▁Basic	-10.88
▁dy	-10.88
▁Mock	-10.8801
▁dimensions	-10.8801
csv	-10.8802
call	-10.8803
▁denied	-10.8804
▁activate	-10.8809
11	-10.8818
command	-10.882
XML	-10.8821
▁sm	-10.8829
▁clock	-10.8832
▁subset	-10.8832
▁Domain	-10.8833
▁Zip	-10.8834
▁Report	-10.8836
▁today	-10.8836
▁processes	-10.8846
pool	-10.885
▁kws	-10.8857
▁AUTH	-10.8861
▁pathname	-10.8868
▁TIMEOUT	-10.887
▁agg	-10.8871
▁hi	-10.8872
▁Post	-10.8877
users	-10.8879
▁light	-10.8888
example	-10.8896
▁literal	-10.8901
▁palette	-10.8901
▁were	-10.8902
▁csd	-10.8907
▁AND	-10.8908
▁relpath	-10.8911
▁mc	-10.8912
▁consumer	-10.8912
▁pub	-10.8914
▁started	-10.8921
▁REQUEST	-10.8923
▁END	-10.8931
▁Find	-10.894
▁mount	-10.8941
▁100.0	-10.8942
▁tell	-10.8951
▁Mapping	-10.8966
▁connectivity	-10.8966
▁Fake	-10.8967
▁mri	-10.897
▁coil	-10.8974
▁bus	-10.8977
▁views	-10.8994
▁monkeypatch	-10.8999
▁uniform	-10.9006
▁regions	-10.9013
▁ws	-10.9032
▁flip	-10.9033
▁FS	-10.9036
▁endog	-10.9042
▁mo	-10.9044
▁bindings	-10.9056
linspace	-10.9077
▁cookies	-10.9085
▁MNE	-10.9087
▁classifier	-10.909
ERROR	-10.91
▁getter	-10.91
▁tr	-10.9115
pip	-10.9115
▁rf	-10.9116
▁bridge	-10.9116
▁{0}.	-10.9116
trans	-10.9119
3\	-10.9121
▁basedir	-10.9125
conv	-10.9126
▁void	-10.9126
▁</	-10.913
▁Results	-10.9133
▁obs	-10.9135
▁snippet	-10.9147
▁cval	-10.9148
▁please	-10.9148
▁me	-10.915
▁inplace	-10.915
pre	-10.9154
▁Tool	-10.9163
▁less	-10.9163
proxy	-10.9163
▁Runn	-10.9168
uid	-10.9169
▁locator	-10.9169
verbose	-10.917
'--	-10.9172
▁closing	-10.9173
▁floatX	-10.9185
▁fieldname	-10.9186
▁working	-10.9189
▁both	-10.9191
▁ls	-10.9192
▁stim	-10.9198
▁Symbol	-10.9202
▁Net	-10.9205
plot	-10.9208
▁fromstring	-10.9208
bads	-10.9209
▁anchor	-10.9218
▁parametrize	-10.9223
▁tri	-10.9225
▁rtable	-10.9229
▁lexer	-10.9231
▁Simple	-10.9236
▁xy	-10.9238
subject	-10.9255
▁dynamic	-10.9255
▁generated	-10.9261
▁boot	-10.9268
▁Cookie	-10.9271
▁numeric	-10.9272
▁representation	-10.9275
▁editor	-10.9284
▁assign	-10.9285
▁inc	-10.9291
▁survey	-10.9293
tl	-10.9298
▁ready	-10.93
sickrage	-10.9305
sock	-10.9322
▁converter	-10.9323
ity	-10.9324
▁renderer	-10.9336
▁hint	-10.9337
▁Expression	-10.934
▁linear	-10.9341
▁dx	-10.9342
▁SCHEMA	-10.9343
▁large	-10.9366
▁CODE	-10.9374
▁doesn	-10.9378
▁watch	-10.9379
▁Sample	-10.9384
▁incoming	-10.9385
▁once	-10.9385
()'	-10.9388
▁did	-10.9391
▁share	-10.9394
sh	-10.9395
tab	-10.9396
▁Script	-10.9409
▁alert	-10.941
▁modulestore	-10.9413
▁define	-10.9413
fif	-10.9414
▁pv	-10.9417
fs	-10.9421
▁rating	-10.9424
></	-10.9426
▁prog	-10.943
login	-10.9443
▁Current	-10.9444
▁Encoding	-10.9444
▁Range	-10.9444
▁Runner	-10.9446
▁endpoints	-10.9449
stack	-10.9453
▁infer	-10.9455
inputnode	-10.946
▁team	-10.9465
▁appname	-10.9465
▁finite	-10.9467
force	-10.9478
xa	-10.9479
▁checker	-10.9479
▁'|	-10.9481
▁then	-10.9485
▁logged	-10.9491
▁solver	-10.9495
access	-10.9495
▁cont	-10.9499
▁Change	-10.9504
▁checks	-10.9504
prefix	-10.9513
▁Display	-10.9515
▁Schema	-10.9515
session	-10.9533
▁explicit	-10.9556
▁routes	-10.9563
▁infile	-10.9568
less	-10.9569
▁dc	-10.9572
▁Op	-10.9575
▁Lists	-10.9582
▁Per	-10.9582
▁Connect	-10.9584
▁Style	-10.9585
▁median	-10.9586
▁jar	-10.9588
nzo	-10.9591
▁rd	-10.9597
▁shutdown	-10.9606
▁Space	-10.9612
▁closed	-10.9636
▁td	-10.9651
▁fileno	-10.9652
properties	-10.9654
▁stacklevel	-10.9659
6'	-10.9661
▁union	-10.9668
▁resolver	-10.9677
current	-10.9686
▁Skip	-10.9689
ize	-10.9697
▁testcase	-10.9703
▁mgr	-10.9712
▁argparse	-10.9712
▁TR	-10.9714
▁mne	-10.972
▁decoder	-10.9723
tree	-10.9728
▁paginator	-10.9732
▁eye	-10.9738
▁tm	-10.9757
weight	-10.9758
▁ATTR	-10.9767
▁grant	-10.9768
'<	-10.9781
▁heap	-10.9782
▁frames	-10.9786
▁nc	-10.9786
▁directed	-10.9795
▁resid	-10.9799
▁Gpu	-10.9801
▁Distance	-10.9801
▁decay	-10.9804
ar	-10.9807
ty	-10.9807
▁because	-10.9808
▁APP	-10.9809
▁signals	-10.9809
▁ancestor	-10.9809
▁0.9	-10.9815
▁shop	-10.9818
▁returned	-10.9827
▁gc	-10.9828
proc	-10.9834
▁deploy	-10.9837
return	-10.9837
▁ll	-10.9837
▁transfer	-10.9838
▁sick	-10.9838
▁bb	-10.9841
▁Ns	-10.9854
▁google	-10.9855
▁native	-10.9862
▁pipe	-10.9863
▁25	-10.9867
▁fcn	-10.9874
▁Region	-10.9876
{0}'	-10.9878
▁barcode	-10.9884
▁fraction	-10.9889
mtime	-10.9891
*'	-10.9892
▁newline	-10.9893
▁different	-10.9905
beard	-10.991
▁Offset	-10.991
▁Box	-10.9912
▁GL	-10.9913
▁TEMPLATE	-10.9914
▁nm	-10.9914
▁optimizer	-10.9919
category	-10.992
▁credential	-10.9921
▁avail	-10.9922
▁hit	-10.9929
▁Hash	-10.9947
▁ir	-10.9948
▁14	-10.9952
▁cdf	-10.9954
▁seg	-10.9955
▁inet	-10.9955
▁mm	-10.996
▁grads	-10.9963
▁rm	-10.9964
▁ave	-10.9964
▁'['	-10.9968
▁thumbnail	-10.9969
▁calendar	-10.9969
▁13	-10.997
▁scheduler	-10.998
▁networks	-10.9981
▁Unsupport	-10.9984
▁predicate	-10.9987
▁bn	-10.9989
▁Player	-10.9992
▁tracker	-10.9997
▁detected	-10.9997
exe	-11.0001
▁latex	-11.0009
meta	-11.0013
fields	-11.0018
..'	-11.002
▁Widget	-11.0021
▁Require	-11.0022
▁unused	-11.0029
▁contrib	-11.0029
▁Non	-11.0039
document	-11.0041
layer	-11.0043
▁NULL	-11.0047
▁HTML	-11.0057
▁thresh	-11.0064
▁sqlalchemy	-11.0073
▁lr	-11.0075
▁printer	-11.008
▁curse	-11.0086
▁indexed	-11.0095
▁Decimal	-11.0095
▁Derivation	-11.0095
▁shapes	-11.0104
running	-11.0108
▁pg	-11.0109
dedent	-11.011
active	-11.011
container	-11.0112
▁MIN	-11.0121
▁bug	-11.0125
▁VM	-11.0125
▁photo	-11.0128
ltable	-11.0129
▁preview	-11.0129
▁Handle	-11.013
download	-11.0131
types	-11.0132
▁gis	-11.0135
▁Flag	-11.0136
▁evaluator	-11.0139
help	-11.0153
▁combined	-11.0157
▁backends	-11.0164
▁organization	-11.0167
▁matcher	-11.0169
▁Backend	-11.0171
▁Writer	-11.0179
null	-11.018
▁gradient	-11.0186
pid	-11.0188
▁see	-11.0195
▁Write	-11.0204
ECT	-11.0204
043	-11.0205
▁prime	-11.0205
req	-11.0209
internet	-11.0211
▁nick	-11.0217
▁relation	-11.0218
as	-11.0223
▁live	-11.0234
▁stem	-11.024
reversed	-11.0242
squeeze	-11.0247
▁trunc	-11.0248
▁publish	-11.0249
▁posix	-11.025
▁positional	-11.0255
inclusion	-11.0259
▁adjust	-11.0284
▁Root	-11.0284
▁->	-11.0288
▁hashes	-11.0295
▁mag	-11.0303
exists	-11.0304
▁markdown	-11.0305
▁0.3	-11.031
▁letters	-11.0314
▁reuse	-11.0322
▁Bucket	-11.0322
▁interpolation	-11.0325
▁restricted	-11.0328
tests	-11.0329
▁assignment	-11.0342
opts	-11.0342
▁prefs	-11.0343
▁tris	-11.0359
▁Register	-11.0361
▁0.05	-11.0369
▁hemi	-11.037
▁kargs	-11.037
▁atomic	-11.0385
▁over	-11.039
▁Last	-11.0399
▁mlp	-11.0403
dist	-11.0404
▁Builder	-11.0404
▁directories	-11.0406
▁locales	-11.043
▁primer	-11.0436
egg	-11.0436
▁Policy	-11.0438
▁stable	-11.0439
▁stripped	-11.0444
▁den	-11.0444
▁rotation	-11.0446
▁trust	-11.0456
▁Temporar	-11.0458
▁optional	-11.0459
▁cipher	-11.0469
▁Denied	-11.0476
▁Environment	-11.0476
▁certificates	-11.0484
▁ar	-11.0486
▁skipped	-11.0493
▁frequency	-11.0494
▁dimension	-11.0495
▁initialize	-11.0498
▁300	-11.0506
▁le	-11.0509
▁emails	-11.0512
▁atom	-11.0513
▁strptime	-11.0515
▁sympify	-11.0517
▁lh	-11.0518
▁includes	-11.0519
▁offsets	-11.0524
▁gs	-11.0525
▁modes	-11.0526
▁scripts	-11.0529
▁place	-11.0529
repo	-11.053
mail	-11.0532
▁arn	-11.0554
▁Creat	-11.0555
▁tfr	-11.0556
▁itemsize	-11.0557
▁margin	-11.0559
bit	-11.0559
desc	-11.0563
▁retrieve	-11.0567
▁within	-11.0567
▁bw	-11.0567
linear	-11.0576
▁calc	-11.0578
▁campaign	-11.0581
ookup	-11.0583
frame	-11.0584
▁Min	-11.0584
▁drive	-11.0592
▁prior	-11.0605
▁1.5	-11.061
▁week	-11.0618
▁dhcp	-11.0618
▁hsp	-11.0618
▁pem	-11.0626
▁modify	-11.0627
▁dl	-11.0631
pass	-11.0633
▁cron	-11.0634
▁fval	-11.064
▁pl	-11.064
▁fault	-11.0641
other	-11.0642
▁under	-11.0646
▁de	-11.0647
3.	-11.0656
▁gzip	-11.0658
▁Admin	-11.0673
▁Validate	-11.0676
▁elapsed	-11.0678
▁listener	-11.0687
▁gallery	-11.0688
▁human	-11.069
▁rois	-11.0695
▁orientation	-11.0698
▁nice	-11.0705
▁plan	-11.0711
isfile	-11.0718
▁passphrase	-11.0719
▁rem	-11.0721
▁MODE	-11.0732
header	-11.0736
▁th	-11.0739
span	-11.0742
▁adj	-11.0743
▁failures	-11.0745
▁xlabel	-11.0746
for	-11.075
▁LAYER	-11.075
element	-11.0752
▁vif	-11.0753
▁bg	-11.0754
▁lt	-11.0758
▁folders	-11.0758
binary	-11.0765
▁here	-11.0768
▁hp	-11.0774
ive	-11.0775
▁expanded	-11.0778
kind	-11.0779
▁egg	-11.0782
▁face	-11.0785
▁singular	-11.0786
▁Env	-11.0792
▁ylabel	-11.0793
▁greater	-11.0803
▁floating	-11.0804
▁rh	-11.0804
▁USE	-11.0806
▁{0}:	-11.0809
▁TEXT	-11.0812
▁tracks	-11.0815
▁fingerprint	-11.0824
▁sites	-11.0829
▁"'%	-11.0841
▁broadcastable	-11.0842
▁stage	-11.0846
▁funcname	-11.085
edit	-11.0853
▁pin	-11.0858
dtype	-11.0866
▁intp	-11.0867
▁Constant	-11.0873
▁optimize	-11.0873
▁tostring	-11.0892
▁Categor	-11.0895
wsgi	-11.0897
account	-11.0898
▁preference	-11.0901
▁Edit	-11.0901
platform	-11.0906
▁Coord	-11.0913
▁ffi	-11.0916
▁Try	-11.0918
▁big	-11.0919
▁means	-11.0921
▁osp	-11.0921
▁Second	-11.0922
init	-11.0922
▁pp	-11.0925
flags	-11.0929
▁shard	-11.0931
hello	-11.0932
box	-11.094
▁pull	-11.0946
▁randn	-11.0963
▁vs	-11.0972
▁excluded	-11.0975
▁nat	-11.0976
▁topics	-11.0978
▁argmax	-11.098
▁instructor	-11.0981
rfind	-11.0982
rm	-11.0985
▁launch	-11.099
▁OP	-11.099
op	-11.0996
ff	-11.0996
▁documents	-11.1003
▁decorated	-11.101
▁song	-11.1015
▁expired	-11.1017
),	-11.1019
▁calls	-11.1032
▁Detail	-11.1036
▁ob	-11.1039
▁VALUE	-11.1043
▁products	-11.1046
stop	-11.1047
▁sd	-11.1047
▁ci	-11.1048
▁Tuple	-11.1048
sys	-11.1052
▁successfully	-11.1053
▁learning	-11.1055
▁Execut	-11.1057
▁due	-11.1057
▁sanitize	-11.1065
'/'	-11.1072
trace	-11.1073
▁|\	-11.1083
▁Ra	-11.109
▁importer	-11.1105
▁hub	-11.111
▁af	-11.1113
▁10000	-11.1116
hudson	-11.1119
enable	-11.1125
▁ttl	-11.1127
▁ad	-11.1133
▁PASSWORD	-11.1136
▁dense	-11.1137
arg	-11.114
Q	-11.1146
▁grammar	-11.1161
▁dd	-11.1161
▁area	-11.1165
▁Git	-11.1166
▁'{}	-11.1166
▁spacing	-11.1167
▁probs	-11.1171
▁maintenance	-11.1174
▁An	-11.1176
down	-11.1186
▁room	-11.1188
▁Types	-11.1188
▁syms	-11.119
wiki	-11.1193
▁geom	-11.1199
con	-11.1201
▁widgets	-11.1203
updated	-11.1208
256	-11.1217
▁ldap	-11.122
▁chmod	-11.1224
▁editable	-11.1226
▁preserve	-11.1238
▁red	-11.1257
▁ecg	-11.1257
▁residual	-11.1257
▁references	-11.1262
▁svc	-11.1267
▁man	-11.1273
▁lut	-11.1277
▁rx	-11.1281
▁statuses	-11.1282
enabled	-11.1284
▁Notification	-11.1287
▁qt	-11.1288
▁remainder	-11.1288
▁HOME	-11.129
▁canonical	-11.1292
▁'</	-11.1294
▁UTF	-11.1297
▁attempt	-11.1307
px	-11.1311
▁credit	-11.1318
owner	-11.1322
▁1000.0	-11.1335
▁fc	-11.1336
like	-11.1337
storage	-11.1341
▁note	-11.1342
▁Child	-11.1343
▁bond	-11.1344
▁oid	-11.1352
seq	-11.1357
▁Title	-11.137
▁NFFT	-11.137
▁Do	-11.137
region	-11.137
▁rebulk	-11.1371
▁PEM	-11.1394
queue	-11.1405
)"	-11.141
vars	-11.1413
▁0.0001	-11.1413
▁wrong	-11.1429
▁filesystem	-11.1429
▁idxs	-11.143
▁cmds	-11.1432
▁ON	-11.1437
fill	-11.1439
▁namespaces	-11.144
entry	-11.1442
▁logo	-11.1444
▁repos	-11.1446
▁Language	-11.1455
▁Idx	-11.146
stats	-11.1464
▁oo	-11.1467
▁depends	-11.1472
▁'*	-11.1476
▁preferred	-11.1478
▁grain	-11.1482
86	-11.1483
alib	-11.1486
href	-11.1487
has	-11.1493
▁shp	-11.1493
▁Skipp	-11.1503
results	-11.1512
▁codecs	-11.1522
common	-11.1526
▁docker	-11.1528
red	-11.153
▁globs	-11.1534
cp	-11.1534
scale	-11.1536
▁Dialog	-11.1541
▁Must	-11.1541
▁hexdig	-11.1543
▁extras	-11.1544
▁HEADER	-11.1545
▁postp	-11.1547
▁Merge	-11.1549
▁along	-11.1554
▁corrected	-11.1556
▁na	-11.1557
▁legend	-11.1559
▁span	-11.1562
▁vertno	-11.1563
▁Loade	-11.1565
▁verification	-11.1569
▁some	-11.1577
▁rho	-11.1577
[%	-11.158
▁Sensor	-11.1584
▁FIELD	-11.1584
security	-11.1586
param	-11.1594
▁expire	-11.1595
▁ago	-11.1597
▁'&'	-11.1604
▁lists	-11.161
▁visit	-11.1612
▁sensors	-11.1616
▁Row	-11.1632
▁31	-11.1633
sage	-11.1639
temporary	-11.164
▁Encoder	-11.164
shuffle	-11.1641
▁plus	-11.1652
mag	-11.1652
▁placeholder	-11.1653
▁elt	-11.1658
▁supports	-11.1658
▁increment	-11.1665
▁Lib	-11.1666
summary	-11.1668
▁meth	-11.1678
▁sff	-11.1687
minion	-11.1695
▁processed	-11.1696
▁determine	-11.1702
▁subproject	-11.1702
02	-11.1703
▁calculate	-11.1705
▁article	-11.1707
▁se	-11.1716
▁tot	-11.1716
▁']'	-11.1718
labels	-11.1721
▁deep	-11.1724
UTF	-11.1742
expected	-11.1746
craft	-11.1753
per	-11.1754
▁Timestamp	-11.1759
alpha	-11.176
▁numer	-11.176
▁students	-11.176
▁Got	-11.1761
stdscr	-11.1761
▁Database	-11.1765
chs	-11.1767
▁queries	-11.1768
▁amo	-11.1769
%(	-11.1775
▁covariance	-11.1783
▁broadcast	-11.1786
▁en	-11.1794
▁most	-11.1795
im	-11.1796
▁em	-11.1797
opt	-11.1798
▁dpi	-11.1801
▁verts	-11.1802
▁provide	-11.1803
▁Ex	-11.1804
▁Given	-11.1805
▁leading	-11.1814
mat	-11.1822
▁legacy	-11.1825
▁projection	-11.1828
▁Axi	-11.1833
gen	-11.1837
▁aff	-11.1838
▁preprocess	-11.1839
▁Tests	-11.1845
▁Rational	-11.1848
"\	-11.1851
▁gof	-11.1857
ls	-11.1858
▁zoom	-11.1859
▁bp	-11.1863
strict	-11.1865
vm	-11.1867
▁forms	-11.1871
▁checkpoint	-11.1872
▁streams	-11.1874
ts	-11.1877
▁wcs	-11.1887
▁0.25	-11.189
axes	-11.1893
▁Batch	-11.1893
▁Zone	-11.1894
▁subscriptions	-11.1895
▁Wait	-11.1896
▁es	-11.1908
▁flash	-11.1914
▁4.0	-11.1916
▁fullpath	-11.1924
▁dirty	-11.1931
▁vb	-11.1931
kwargs	-11.1933
images	-11.1935
▁Container	-11.1938
▁converted	-11.1939
-05	-11.1943
cluster	-11.1945
▁rect	-11.1946
▁conversion	-11.1946
▁glance	-11.1946
▁grp	-11.1952
▁enter	-11.1957
cpu	-11.196
▁chan	-11.1972
kernel	-11.1972
▁ipython	-11.199
▁footer	-11.1993
▁below	-11.1995
▁reporter	-11.2001
/{	-11.2003
disable	-11.2004
▁dists	-11.2004
etypes	-11.2006
▁surface	-11.201
▁gb	-11.2015
▁squared	-11.2019
md	-11.2024
▁Sky	-11.2028
ylim	-11.2036
▁estimate	-11.204
grid	-11.204
▁Grid	-11.2042
▁nw	-11.2042
▁algo	-11.2052
hex	-11.206
▁Feed	-11.2065
▁encrypt	-11.2074
zA	-11.2079
freq	-11.2082
▁ctxt	-11.2097
▁imported	-11.2097
ry	-11.2103
role	-11.2104
▁follower	-11.2105
▁membership	-11.211
▁jd	-11.2115
▁90	-11.2115
▁winreg	-11.2121
▁SETTINGS	-11.2121
snapshot	-11.2123
▁memo	-11.2126
▁mapped	-11.2129
▁Intersections	-11.2145
▁packed	-11.2149
▁doctest	-11.2151
util	-11.2153
ix	-11.2157
frozenset	-11.216
prop	-11.2165
▁construct	-11.2168
fail	-11.2175
▁confirm	-11.2187
▁migration	-11.2197
month	-11.2198
sparse	-11.2201
▁conditional	-11.2211
▁Generator	-11.2211
▁montage	-11.2212
▁apiproxy	-11.2214
▁pth	-11.2216
▁keepdims	-11.2216
▁hmac	-11.222
▁projs	-11.2222
▁superuser	-11.2229
▁xpath	-11.2229
▁softmax	-11.223
abc	-11.2233
▁maxlen	-11.2233
namespace	-11.2235
eq	-11.2235
▁dm	-11.2241
▁Over	-11.2241
▁profiler	-11.2242
windows	-11.2244
plain	-11.2246
sha	-11.2247
▁Hd	-11.2248
▁secs	-11.2251
▁profiles	-11.2251
▁Registry	-11.2257
▁Show	-11.2257
▁selem	-11.2258
▁Side	-11.2258
▁mult	-11.2259
▁successful	-11.2264
▁fpath	-11.2265
▁zf	-11.2265
▁star	-11.2267
▁Dataset	-11.2268
ssl	-11.228
dot	-11.2283
indptr	-11.2291
ver	-11.2298
windll	-11.23
▁ek	-11.2305
▁terminal	-11.2318
▁verified	-11.2319
▁pep	-11.2321
▁Area	-11.2321
▁capture	-11.2326
and	-11.2328
▁fg	-11.2331
▁scaling	-11.2344
▁variant	-11.2347
▁bio	-11.2351
▁Unexpected	-11.2351
ting	-11.2354
web	-11.2356
prog	-11.2363
▁uni	-11.2363
▁rewrite	-11.2374
▁completed	-11.238
▁pvals	-11.2383
▁REGEX	-11.2385
▁anonymous	-11.2385
▁checksum	-11.2387
DELETE	-11.2389
▁workers	-11.239
▁matvec	-11.2392
▁PRO	-11.2394
▁nu	-11.2396
▁Tetragrid	-11.2397
▁0.8	-11.2398
+)'	-11.2399
▁It	-11.2399
):\	-11.2399
▁TAG	-11.2408
▁ha	-11.2414
▁serialized	-11.2425
img	-11.243
services	-11.243
▁{2}'	-11.2432
▁descriptors	-11.2434
children	-11.2444
▁zones	-11.2445
▁national	-11.2445
▁rst	-11.2446
▁viewpoint	-11.2451
://%	-11.2451
▁daemon	-11.2456
▁polys	-11.2461
▁maxiter	-11.2464
▁btn	-11.247
▁Upload	-11.2472
availability	-11.2473
MAP	-11.2474
le	-11.2475
▁shlex	-11.2492
▁'127.0.0.1'	-11.2504
▁syslog	-11.2507
▁vote	-11.2511
▁pval	-11.2511
▁cgi	-11.2511
▁extended	-11.2514
▁argspec	-11.2522
ctx	-11.2527
▁Sum	-11.253
▁accounts	-11.2531
▁LIST	-11.2533
echo	-11.2538
▁effect	-11.2543
▁Dot	-11.2544
▁Serialize	-11.2545
ES	-11.2547
▁payment	-11.2548
▁openid	-11.2551
▁direct	-11.2551
▁there	-11.2553
▁etype	-11.2554
▁vmax	-11.2557
▁authentication	-11.2558
now	-11.256
SERVER	-11.2561
▁demo	-11.2564
▁outline	-11.2565
▁monom	-11.2571
hstack	-11.2572
▁Parameters	-11.2582
skip	-11.2583
▁xx	-11.2586
▁Allow	-11.2587
▁rot	-11.2591
▁skein	-11.2593
▁pause	-11.2594
rc	-11.2594
cmdline	-11.2595
▁autoescape	-11.2596
▁measure	-11.2597
▁Lines	-11.2598
▁sure	-11.26
▁variance	-11.2605
cert	-11.2605
top	-11.2608
▁twisted	-11.261
▁stubs	-11.2616
▁OPTIONS	-11.262
▁replication	-11.2628
▁virtualenv	-11.2628
▁primitive	-11.2647
▁Crafte	-11.2655
font	-11.2659
▁Cluster	-11.2665
report	-11.2675
darwin	-11.2682
▁Tensor	-11.2684
▁Authentication	-11.2684
▁Safe	-11.2684
▁proxies	-11.2693
▁Pickle	-11.2697
schema	-11.2699
mysql	-11.2708
▁"\	-11.2715
▁suggestion	-11.2717
▁xyz	-11.272
▁tx	-11.2723
▁aa	-11.2723
▁pformat	-11.2725
noverlap	-11.2726
▁say	-11.2728
▁vmin	-11.2729
▁Generate	-11.2734
of	-11.2735
▁Processor	-11.2736
▁Inset	-11.2738
▁DNS	-11.2739
▁512	-11.2742
▁minions	-11.2742
▁mx	-11.2742
▁Tp	-11.2744
yaml	-11.2756
sol	-11.2758
▁coverage	-11.2759
us	-11.276
▁mpstat	-11.2763
▁containers	-11.2772
realpath	-11.2779
empty	-11.2781
backend	-11.2786
▁Auto	-11.2788
▁isnan	-11.279
▁interp	-11.2794
▁embed	-11.2794
▁assets	-11.2802
▁desktop	-11.2802
▁evaluated	-11.2817
▁collector	-11.2821
▁tick	-11.2823
▁Character	-11.283
with	-11.2834
▁coerce	-11.2835
▁isabs	-11.2836
▁logic	-11.284
projects	-11.2843
▁isscalar	-11.2843
feconf	-11.2846
ecurity	-11.2847
▁nonce	-11.2848
▁polygon	-11.285
▁assigned	-11.2852
▁accepted	-11.2856
▁Contact	-11.2859
,%	-11.2866
cancel	-11.2876
▁rt	-11.2876
▁Enum	-11.2877
▁Chain	-11.2879
▁svg	-11.2881
▁ENCODING	-11.2881
▁clade	-11.2883
cfg	-11.2886
▁Integra	-11.2893
OS	-11.2895
▁java	-11.2901
▁locs	-11.2903
▁rendered	-11.2906
plugin	-11.2906
▁colname	-11.2909
▁START	-11.291
▁Switch	-11.2914
▁alternative	-11.2921
▁nargs	-11.2923
K	-11.2931
▁we	-11.2935
▁wf	-11.294
▁encrypted	-11.2947
▁centers	-11.295
▁counters	-11.2956
forge	-11.2958
▁LE	-11.2965
▁inject	-11.2971
▁acquire	-11.2971
▁cachedir	-11.2973
▁Entit	-11.2975
▁Total	-11.2979
▁Agent	-11.2979
find	-11.2979
▁delim	-11.2984
▁Consol	-11.2984
▁pidfile	-11.2986
pr	-11.299
03	-11.2993
▁testdir	-11.3005
}"	-11.301
parser	-11.3013
▁rgba	-11.3013
▁requirement	-11.3013
2.	-11.3016
▁Descriptor	-11.3028
▁Nice	-11.3029
▁Socket	-11.3029
▁sz	-11.3035
▁managed	-11.3036
▁wheel	-11.3039
▁tls	-11.3047
▁Configure	-11.3054
▁Analyze	-11.3054
VM	-11.3063
'-'	-11.3067
fn	-11.3068
▁Temp	-11.3074
▁Func	-11.3076
would	-11.3079
▁Main	-11.3079
setup	-11.309
▁codec	-11.3092
▁cover	-11.3097
media	-11.3108
global	-11.3109
▁crc	-11.3111
▁Valid	-11.3111
▁svd	-11.3112
▁timed	-11.3114
▁Pola	-11.3116
addr	-11.3119
rows	-11.3125
▁Pos	-11.3127
▁Deferred	-11.3129
▁nd	-11.3134
▁parsing	-11.3135
▁FILES	-11.3137
▁Counter	-11.3137
▁fmin	-11.3137
▁FILETYPE	-11.3137
▁styles	-11.3141
▁3600	-11.3143
▁Limit	-11.3162
▁soup	-11.3169
▁implementation	-11.318
▁Traceback	-11.318
at	-11.3182
fd	-11.3182
▁feedback	-11.3185
▁lead	-11.3194
▁nearest	-11.3194
quiet	-11.3205
▁rollback	-11.3209
▁DATE	-11.3209
▁fire	-11.3211
▁curve	-11.3224
▁titles	-11.3229
▁keyfile	-11.323
▁Save	-11.3233
▁?	-11.3234
▁BAD	-11.3237
▁recent	-11.3237
▁fitness	-11.3238
▁constraints	-11.3244
▁markup	-11.3246
URL	-11.3248
mac	-11.3265
▁around	-11.3269
▁cum	-11.3273
tools	-11.3274
▁quotes	-11.3279
tstep	-11.3286
▁boxes	-11.3293
▁COOKIE	-11.3293
long	-11.3294
▁chunksize	-11.3297
term	-11.3311
change	-11.3315
▁Pattern	-11.3317
attr	-11.3332
▁Fetch	-11.3334
▁psutil	-11.3335
▁firewall	-11.3337
▁EVENT	-11.3337
▁ms	-11.3337
normal	-11.3337
IES	-11.3341
▁expiration	-11.3348
▁cpp	-11.3351
lock	-11.3352
▁checkout	-11.3354
▁There	-11.3355
▁Hy	-11.3356
▁'{}'	-11.3358
valid	-11.3358
▁worksheet	-11.3362
▁zmq	-11.337
▁tries	-11.3371
▁com	-11.3373
▁deriv	-11.3375
done	-11.3381
▁artifact	-11.3385
▁Classifier	-11.3386
train	-11.3391
tcp	-11.3391
▁eight	-11.3391
xenapi	-11.3392
▁guid	-11.3394
▁matrices	-11.3395
▁mon	-11.34
▁ys	-11.3403
▁SELECT	-11.3403
▁finished	-11.3403
▁quoted	-11.3406
▁mk	-11.3409
','	-11.3413
▁Regex	-11.3419
▁orient	-11.3428
▁duplicate	-11.3428
▁'!	-11.3433
fake	-11.3433
▁cells	-11.3437
▁dtypes	-11.3439
▁pyplot	-11.3442
▁green	-11.3444
emory	-11.3446
▁arc	-11.3452
▁pm	-11.3454
▁SITE	-11.3454
▁authorized	-11.3456
{}'	-11.3456
▁'"%	-11.3461
▁logout	-11.3467
operator	-11.3473
MOTE	-11.3486
▁Convert	-11.3488
▁Google	-11.349
mkstemp	-11.3491
▁msgs	-11.3492
▁MSG	-11.3496
▁psz	-11.35
▁yy	-11.3506
▁Res	-11.3507
lh	-11.351
▁umask	-11.3512
▁bd	-11.3515
MEG	-11.3525
▁VALID	-11.3525
}.	-11.353
▁tid	-11.3534
height	-11.3535
ns	-11.3537
case	-11.354
▁Help	-11.3541
▁Attr	-11.3544
▁weighted	-11.355
▁gyp	-11.3552
▁above	-11.3552
append	-11.3566
random	-11.3567
▁unexpected	-11.3571
▁about	-11.3571
▁jac	-11.3574
▁pkey	-11.3581
▁ent	-11.3582
▁gr	-11.3583
▁infos	-11.3585
▁coils	-11.359
▁vertexes	-11.3598
HEAD	-11.3601
▁Char	-11.3602
members	-11.3607
▁180	-11.361
▁accuracy	-11.3612
▁errmsg	-11.3617
pdf	-11.3618
li	-11.3633
▁getopt	-11.3642
▁subtask	-11.3645
warnings	-11.3647
▁wiki	-11.3648
▁misc	-11.3648
▁Metric	-11.3649
▁being	-11.365
▁Provider	-11.3651
▁Part	-11.3652
▁translator	-11.3652
▁written	-11.3655
▁finish	-11.3665
▁strerror	-11.3667
▁symlinks	-11.3668
▁Words	-11.3668
▁themes	-11.3671
▁TH	-11.3672
▁divisions	-11.3672
ms	-11.3673
▁pootle	-11.3675
lang	-11.3688
▁Multiple	-11.369
▁pref	-11.3691
▁contributor	-11.3694
▁notifications	-11.3696
▁Score	-11.3696
▁descr	-11.3697
▁rotate	-11.37
▁notes	-11.3701
▁Episode	-11.3702
▁[%	-11.3704
▁Has	-11.3705
docker	-11.3706
▁PROTOCOL	-11.3706
▁gui	-11.3706
▁entropy	-11.3708
▁inter	-11.3708
▁manual	-11.3724
copy	-11.3744
▁trail	-11.3747
my	-11.3752
▁decrypt	-11.3753
▁At	-11.3756
▁Chart	-11.3759
▁recurse	-11.3761
interface	-11.3763
▁toggle	-11.3763
-08	-11.3765
▁Enabled	-11.3765
▁aspect	-11.3765
dropout	-11.3777
▁'2'	-11.3778
provider	-11.3782
▁rights	-11.3788
jango	-11.3789
▁Filename	-11.3793
▁li	-11.3807
fire	-11.3814
▁MODULE	-11.3819
▁jail	-11.3819
▁choose	-11.3821
packages	-11.3822
▁syntax	-11.3823
▁SET	-11.3824
▁contextlib	-11.3826
▁gp	-11.3827
▁fl	-11.3829
▁foreign	-11.383
▁lp	-11.3837
shell	-11.3837
▁subsample	-11.3839
figsize	-11.3839
▁Archive	-11.3841
▁alloc	-11.3841
▁blobs	-11.3841
▁venv	-11.3848
nsible	-11.3849
▁symlink	-11.3853
▁joined	-11.3857
▁occurred	-11.3865
buf	-11.3867
▁SOCK	-11.3872
7'	-11.3873
▁42	-11.3873
main	-11.3876
▁toc	-11.3877
loc	-11.3879
trailing	-11.3882
▁lag	-11.3883
units	-11.3891
exec	-11.3893
▁spatial	-11.39
▁its	-11.3904
▁sink	-11.3908
▁comparison	-11.3913
▁based	-11.3919
▁vt	-11.3919
▁bandwidth	-11.3924
▁circuit	-11.3931
▁mixed	-11.3936
▁published	-11.394
shared	-11.3945
▁varargs	-11.3946
▁0.4	-11.3955
▁px	-11.3964
▁collapse	-11.3968
▁Boolean	-11.3974
column	-11.3974
▁ros	-11.3981
transport	-11.3985
▁getargspec	-11.3986
▁rsa	-11.3986
=%(	-11.3987
dim	-11.399
▁rfc	-11.3991
▁indicator	-11.3995
ER	-11.4007
save	-11.4013
▁Byte	-11.4016
▁Pd	-11.4017
comments	-11.4021
▁isnull	-11.4024
▁Remote	-11.403
▁composite	-11.4037
▁approved	-11.404
▁gain	-11.4043
cd	-11.4045
▁'[%	-11.4047
▁ary	-11.4047
▁httplib	-11.405
▁front	-11.4052
▁smtp	-11.4054
▁phone	-11.4058
textwrap	-11.406
shp	-11.406
▁redirects	-11.4061
▁urn	-11.4062
product	-11.4073
▁Quote	-11.4082
▁getitem	-11.4084
▁Suite	-11.4085
▁perform	-11.4086
▁SESSION	-11.4086
▁decim	-11.4087
▁Rate	-11.4087
▁mutable	-11.4092
▁Full	-11.4095
ptr	-11.4095
▁serving	-11.4095
▁PER	-11.4098
▁tex	-11.4099
▁dct	-11.4099
▁returner	-11.4104
▁localtime	-11.4112
▁queues	-11.4114
vstack	-11.4116
▁controls	-11.4117
▁every	-11.4121
▁srid	-11.4121
▁nrows	-11.4131
▁UTC	-11.4137
▁cosmo	-11.4142
▁Review	-11.4143
▁how	-11.4147
▁omega	-11.4147
▁criteria	-11.4151
▁bs	-11.4152
activity	-11.4152
▁compiled	-11.4152
▁VAR	-11.4153
▁LOCAL	-11.4154
allow	-11.4154
▁mkd	-11.4157
ter	-11.4158
▁28	-11.4158
grad	-11.4159
▁speed	-11.4159
▁virt	-11.4168
▁decorate	-11.4172
▁par	-11.4174
▁just	-11.4177
▁currently	-11.4182
eeg	-11.4188
hone	-11.4193
▁statsd	-11.4194
▁authenticate	-11.4196
▁Top	-11.4196
remote	-11.4196
▁Attempt	-11.4197
IGNORECASE	-11.4198
short	-11.42
▁sf	-11.4203
▁callbacks	-11.4207
▁PAGE	-11.4207
▁COMMAND	-11.4207
▁dialog	-11.4209
▁visited	-11.4212
▁5.0	-11.4213
▁0.7	-11.4215
▁management	-11.4217
":	-11.4221
▁0.6	-11.4226
▁Evaluate	-11.4241
▁overlap	-11.4244
▁Pow	-11.4251
video	-11.4252
▁redis	-11.4253
▁pc	-11.4253
▁dispatcher	-11.426
▁RUN	-11.426
▁VARS	-11.4263
▁providers	-11.4269
▁distutils	-11.4275
▁batches	-11.4279
▁Logg	-11.4288
back	-11.4304
▁serve	-11.4305
▁Need	-11.4311
▁these	-11.4311
▁Fill	-11.4317
▁such	-11.4318
un	-11.432
▁issues	-11.432
jid	-11.4321
▁reqs	-11.4322
-06	-11.4322
▁sw	-11.4323
▁dr	-11.433
▁facebook	-11.4334
▁tarball	-11.4343
▁reraise	-11.4349
▁bracket	-11.4354
eneric	-11.4364
▁processors	-11.4364
OR	-11.4365
▁uninstall	-11.4369
▁via	-11.4371
samples	-11.4375
reset	-11.4379
days	-11.438
▁separators	-11.4384
▁authors	-11.4388
▁URI	-11.4395
▁throw	-11.4396
▁pids	-11.4397
▁contributors	-11.4398
uint	-11.44
▁sq	-11.44
randrange	-11.4404
▁creating	-11.4408
▁Init	-11.4412
▁ni	-11.4414
▁beacon	-11.4416
▁orders	-11.442
TYPE	-11.442
▁bdm	-11.4424
▁Accept	-11.4425
buffer	-11.4435
▁undefined	-11.4435
ification	-11.4436
▁yet	-11.4441
▁newlines	-11.4446
▁Too	-11.445
person	-11.4452
▁dbms	-11.4453
▁starting	-11.4465
▁Up	-11.4477
▁phrase	-11.4479
ok	-11.4479
predicted	-11.4481
▁cru	-11.4482
▁subtype	-11.4483
▁ld	-11.4483
thread	-11.4485
▁BSD	-11.449
matrix	-11.4491
▁ticks	-11.4494
pillar	-11.4498
css	-11.4503
isoformat	-11.4509
{1}'	-11.4509
▁zi	-11.451
▁Locat	-11.452
▁incr	-11.453
wait	-11.4536
-10	-11.454
▁MS	-11.454
▁Binding	-11.4542
▁dialect	-11.4546
▁summaries	-11.4546
rr	-11.4552
▁sphere	-11.4552
/<	-11.4556
sqlite	-11.4561
▁STATE	-11.4562
▁pct	-11.4571
▁ajax	-11.4572
▁ST	-11.4575
▁pty	-11.4576
inux	-11.4577
▁png	-11.4578
▁sup	-11.459
control	-11.459
▁lv	-11.4594
▁Global	-11.4599
▁multiplier	-11.4601
▁fac	-11.4604
::	-11.4605
▁triplet	-11.4606
▁infoblox	-11.4606
▁NUM	-11.4612
▁heading	-11.4612
em	-11.4615
▁subtitle	-11.4618
▁logits	-11.4624
stat	-11.4625
▁'}'	-11.4625
▁exponent	-11.4631
▁maps	-11.4632
lim	-11.4635
bad	-11.4638
bits	-11.4638
▁dfs	-11.464
ax	-11.4644
▁deferred	-11.4652
▁Parent	-11.4658
▁GLOBAL	-11.466
linux	-11.4662
▁indentation	-11.4664
▁iteration	-11.4664
xb	-11.4665
▁kern	-11.4667
▁vmware	-11.4668
present	-11.467
},	-11.4672
▁Mor	-11.4672
▁DBMS	-11.4672
jenkins	-11.4675
▁LIMIT	-11.4675
▁ph	-11.4675
property	-11.4676
▁audit	-11.468
▁intervals	-11.4689
(\\	-11.4691
uthorization	-11.4692
▁'{%	-11.4694
▁formset	-11.4695
directory	-11.4697
▁Helper	-11.472
▁DICT	-11.4722
▁CLASS	-11.4723
▁go	-11.4724
▁COMMENT	-11.4725
▁discussion	-11.4728
▁ss	-11.4736
▁403	-11.4738
▁127	-11.4743
▁manage	-11.4745
▁BLOCK	-11.4746
▁frac	-11.4746
▁wire	-11.4748
▁18	-11.4751
▁scenarios	-11.4754
▁annot	-11.4763
▁invert	-11.4764
▁slave	-11.4766
▁locked	-11.477
▁Height	-11.4777
▁Revision	-11.4777
idders	-11.4778
▁Resolver	-11.478
▁look	-11.4782
▁'{1}'	-11.4787
▁CLIENT	-11.4787
▁purge	-11.4792
▁rp	-11.4799
▁tokenizer	-11.4805
▁kinds	-11.4808
▁even	-11.4817
▁decl	-11.4824
▁disks	-11.4824
▁Release	-11.4837
▁PATTERN	-11.4838
▁tweet	-11.484
▁aware	-11.4848
▁translated	-11.4849
▁notifier	-11.4851
▁excludes	-11.4852
▁'@	-11.4857
▁encryption	-11.4863
norm	-11.4865
▁intf	-11.487
▁memoize	-11.4876
latin	-11.4889
▁attachments	-11.489
'."	-11.4891
▁peak	-11.4896
hins	-11.4897
▁Include	-11.4899
▁blacklist	-11.4902
▁basis	-11.4904
it	-11.4906
▁density	-11.4906
▁backward	-11.4912
coord	-11.4916
▁eip	-11.4922
▁webapp	-11.4922
▁scalings	-11.4937
▁peer	-11.4938
▁mro	-11.4942
▁2.5	-11.4944
▁systems	-11.4948
models	-11.4951
pyc	-11.4955
▁preferences	-11.4956
▁Distribution	-11.4958
▁Dispatch	-11.4958
▁blueprint	-11.4963
▁initiator	-11.4965
▁17	-11.4967
WARNING	-11.4969
▁MESSAGE	-11.4971
▁discard	-11.4972
chars	-11.4972
warning	-11.4974
java	-11.4977
▁thrift	-11.4978
▁sdk	-11.4981
▁youtube	-11.4986
▁wx	-11.4989
ary	-11.4989
▁'(?	-11.4999
▁slow	-11.5002
▁hasher	-11.501
▁pn	-11.5012
tuple	-11.5015
▁tmpl	-11.5016
▁POINTER	-11.5019
▁Shell	-11.5019
▁Pixel	-11.5019
▁wt	-11.502
▁Eq	-11.5023
df	-11.5026
cc	-11.5028
▁avoid	-11.5028
▁subclass	-11.5037
▁esxi	-11.5037
▁branches	-11.5037
00	-11.5041
▁outside	-11.5043
share	-11.5053
▁party	-11.5054
▁clr	-11.5056
datetime	-11.5059
▁Arg	-11.5064
▁act	-11.507
▁See	-11.5076
▁As	-11.5076
▁nic	-11.5082
▁IMAGE	-11.5088
▁der	-11.5097
▁hg	-11.5099
▁secgroup	-11.5101
google	-11.5101
▁sentences	-11.5105
▁quit	-11.5109
▁ri	-11.5113
tarfile	-11.5117
▁filt	-11.5127
▁again	-11.5127
▁interpolate	-11.5128
arkup	-11.5141
grafana	-11.5142
▁Internal	-11.5142
▁Half	-11.5142
▁Menu	-11.5142
▁Font	-11.5142
upload	-11.5142
▁Improper	-11.5145
ln	-11.5145
▁ACCESS	-11.5146
▁exclusive	-11.5149
▁constraint	-11.5152
links	-11.5158
▁mf	-11.5159
▁checked	-11.5162
▁answers	-11.5163
▁uploaded	-11.517
AL	-11.5171
0\	-11.5191
▁datasource	-11.5194
▁Negative	-11.5204
▁Disk	-11.5204
▁Vertexes	-11.5204
▁Null	-11.5204
▁mismatch	-11.521
▁filetype	-11.5212
▁ai	-11.5212
▁generation	-11.5214
▁spawn	-11.5214
▁installation	-11.5219
▁inset	-11.5219
lt	-11.5223
delta	-11.5229
arch	-11.5233
subjects	-11.5234
▁10.0	-11.5234
▁unix	-11.5243
▁highlight	-11.5244
▁fps	-11.5249
={	-11.5249
handler	-11.5261
▁datum	-11.5267
▁snmp	-11.5275
▁transformer	-11.5279
▁rotated	-11.5282
▁allocation	-11.5282
▁addons	-11.5287
▁unsupported	-11.529
▁protected	-11.5291
▁srv	-11.5293
▁hdu	-11.5295
▁scratch	-11.53
▁importlib	-11.5301
▁lint	-11.5301
{0}	-11.5307
▁urlconf	-11.5311
staff	-11.5316
anvas	-11.5318
folder	-11.5318
messages	-11.5318
▁included	-11.5319
▁WIN	-11.532
▁instrument	-11.5325
▁maxsize	-11.5329
▁Machine	-11.5329
▁Position	-11.5329
▁Free	-11.5329
section	-11.5334
inet	-11.5341
▁expiry	-11.5347
▁exts	-11.5351
'[	-11.5355
▁mountpoint	-11.5358
}{	-11.5359
▁}\	-11.536
▁correction	-11.5365
-1'	-11.5365
▁Tools	-11.5368
▁linewidth	-11.5369
USER	-11.537
author	-11.5377
docs	-11.5382
▁Plot	-11.5385
▁Identifier	-11.5395
▁distinct	-11.5396
▁reps	-11.5398
▁linter	-11.5398
▁carrier	-11.54
▁srs	-11.5404
▁alter	-11.5404
filters	-11.5405
▁Namespace	-11.5406
▁quo	-11.5407
▁hyper	-11.5413
ex	-11.5413
▁Track	-11.5414
▁19	-11.5415
▁nbr	-11.5417
▁BY	-11.5419
▁community	-11.5421
▁sets	-11.5427
▁installer	-11.5427
▁lineage	-11.5433
▁rss	-11.5445
▁CONTENT	-11.5447
▁tmpfile	-11.545
▁inherit	-11.5451
▁synset	-11.5451
▁capitalize	-11.5451
▁atoms	-11.5452
▁permutation	-11.5453
▁STREAM	-11.546
▁tg	-11.5462
▁hierarchy	-11.5465
▁expose	-11.5471
▁vendor	-11.5474
▁Couldn	-11.5474
▁ALIAS	-11.5477
custom	-11.5481
scipy	-11.5484
repository	-11.5484
▁prof	-11.5485
points	-11.5494
▁addrs	-11.5498
▁digit	-11.5498
▁outstr	-11.55
binascii	-11.5501
▁metadef	-11.5501
sub	-11.5505
▁mes	-11.5506
▁privileges	-11.5506
▁denominator	-11.5517
▁Credential	-11.552
pt	-11.552
▁fold	-11.552
▁Cell	-11.5521
▁Hub	-11.5521
▁lam	-11.5526
pack	-11.5527
ps	-11.5529
▁vis	-11.5531
randfunc	-11.5535
▁trees	-11.5538
▁Ratio	-11.5539
▁cx	-11.554
▁completions	-11.5541
▁aux	-11.5544
vmadm	-11.5546
▁UUID	-11.5549
▁AS	-11.5551
-=	-11.5554
▁filesize	-11.5555
▁slot	-11.5558
▁serializers	-11.5563
▁Extra	-11.5563
trainable	-11.5565
▁plain	-11.5567
fter	-11.557
▁Mask	-11.5574
oauth	-11.5581
▁markers	-11.5581
▁Icon	-11.5583
▁permitted	-11.5585
▁triangle	-11.5587
▁pytz	-11.5588
▁shortest	-11.5589
▁Desc	-11.5591
▁elemwise	-11.5593
▁tbl	-11.5593
▁operations	-11.5598
▁OUTPUT	-11.56
▁METHOD	-11.5601
▁hints	-11.5602
▁fact	-11.5603
▁snapshots	-11.5604
▁alignment	-11.5605
')"	-11.5607
mount	-11.5607
▁codename	-11.561
▁waiting	-11.5611
▁tan	-11.5612
▁episodes	-11.5615
▁lab	-11.5619
▁exprs	-11.5621
memory	-11.5621
▁Cert	-11.5624
▁INDEX	-11.5632
▁coll	-11.5638
channel	-11.5639
:\\	-11.5639
inimum	-11.5645
▁disconnect	-11.5645
▁rad	-11.5645
EEG	-11.5647
▁typename	-11.5648
views	-11.5649
▁Threshold	-11.565
▁cupy	-11.565
▁never	-11.5652
▁COLOR	-11.5655
▁tau	-11.5656
▁geo	-11.5658
▁fastq	-11.5661
rgb	-11.5664
▁DEVICE	-11.5667
dataset	-11.5669
▁iri	-11.5669
lower	-11.567
backing	-11.5672
gt	-11.5676
episode	-11.5677
finite	-11.5677
▁hat	-11.568
IP	-11.5684
make	-11.569
▁portion	-11.5692
▁SUB	-11.5693
▁reading	-11.5701
hour	-11.5701
graph	-11.5702
word	-11.5705
▁moves	-11.5707
▁game	-11.5712
▁'{0}.	-11.5713
classes	-11.5715
▁ft	-11.5715
8601	-11.5716
▁Topic	-11.5718
▁trash	-11.5718
▁det	-11.5719
▁dotted	-11.572
fc	-11.5722
▁NAMESPACE	-11.5723
▁multiprocessing	-11.5723
▁iters	-11.5727
notify	-11.5728
▁Checker	-11.5728
▁Linea	-11.5729
slice	-11.5731
▁invoice	-11.5735
▁incorrect	-11.5738
>\\	-11.5745
keyword	-11.5745
▁SSH	-11.5755
got	-11.5767
icon	-11.5777
modules	-11.578
▁Public	-11.5781
▁ddof	-11.5782
▁Driver	-11.5783
ca	-11.5783
▁emit	-11.5784
▁stored	-11.5785
▁permutations	-11.5786
▁cube	-11.5791
et	-11.5792
▁challenge	-11.5793
▁statements	-11.5793
([	-11.5796
▁population	-11.5797
▁tpl	-11.58
▁Fast	-11.58
▁repeated	-11.5801
▁lim	-11.5809
close	-11.581
▁vg	-11.5811
always	-11.5812
▁rl	-11.5813
▁snap	-11.5814
this	-11.5816
▁colorize	-11.582
cat	-11.5821
▁outlines	-11.5823
">	-11.5828
rh	-11.5831
▁vcs	-11.5835
▁TCP	-11.5839
▁traverse	-11.584
▁remain	-11.5841
scope	-11.5841
▁hpi	-11.5843
▁tuples	-11.5845
▁conflict	-11.5847
▁{\	-11.5848
▁corpus	-11.585
▁Login	-11.5851
uccessfully	-11.5853
▁ADMIN	-11.5861
▁bench	-11.5863
▁clients	-11.5873
▁tc	-11.5873
two	-11.5883
▁transformed	-11.5888
▁Retry	-11.5893
▁ftype	-11.5894
▁signing	-11.5899
▁70	-11.5901
▁{2}	-11.5905
▁Plugins	-11.5906
▁tolerance	-11.592
▁bads	-11.5927
▁integrate	-11.5928
▁hits	-11.5932
▁silent	-11.5938
▁br	-11.5939
▁Compute	-11.5941
▁celery	-11.5944
▁months	-11.5947
▁maker	-11.5953
▁LOCK	-11.5957
▁reboot	-11.596
▁uuids	-11.596
▁ET	-11.5962
changed	-11.5964
slug	-11.5971
searchsorted	-11.5977
▁uses	-11.5977
pc	-11.5977
▁Qualit	-11.5979
▁endian	-11.5981
▁silently	-11.5982
ort	-11.5982
▁bi	-11.5983
▁devnull	-11.5984
▁suppress	-11.5985
▁FEATURES	-11.5985
▁opening	-11.599
▁entrance	-11.5991
▁REDIRECT	-11.5993
▁Bio	-11.5994
▁histogram	-11.5994
▁percentage	-11.5997
FILE	-11.5998
▁Za	-11.5998
▁buckets	-11.6002
▁bval	-11.6004
jobs	-11.6005
rule	-11.6008
dirs	-11.6011
vertno	-11.6015
gid	-11.6017
▁lcm	-11.6018
▁company	-11.602
▁courses	-11.6032
colorbar	-11.6032
▁linux	-11.6033
window	-11.6039
▁predictions	-11.6043
▁priv	-11.6043
▁Snapshot	-11.6048
▁configs	-11.605
▁classname	-11.6051
▁uniq	-11.6052
▁estimators	-11.6052
aw	-11.6056
▁va	-11.6057
▁unless	-11.6059
▁qualified	-11.6059
▁nose	-11.6064
▁padded	-11.6064
inf	-11.6066
agent	-11.6067
INFO	-11.6069
▁hM	-11.6071
ending	-11.6073
▁cal	-11.6076
▁tip	-11.6076
▁associated	-11.6083
▁compressed	-11.6083
▁ruby	-11.6083
▁trial	-11.6086
▁netmask	-11.6091
▁tk	-11.6093
center	-11.61
▁Iterat	-11.6103
▁serv	-11.6104
ret	-11.6109
▁Vertex	-11.6116
▁encountered	-11.6117
▁linked	-11.6118
▁bytearray	-11.612
▁23	-11.6123
▁odd	-11.6126
raise	-11.6129
ness	-11.6129
▁embedding	-11.6131
▁mesh	-11.6132
aws	-11.6137
▁fr	-11.6138
position	-11.6142
▁cycles	-11.6147
asset	-11.6147
vector	-11.6149
▁UN	-11.6157
▁arglist	-11.6158
▁ln	-11.6161
▁listing	-11.6167
▁memcache	-11.6178
TOOLS	-11.6183
▁pks	-11.6183
▁dip	-11.6184
▁Enter	-11.6185
▁ROLE	-11.6186
▁conj	-11.6186
▁pa	-11.619
▁abstract	-11.6191
qiime	-11.6195
▁0.75	-11.6199
series	-11.6203
▁duplicates	-11.6209
▁Sp	-11.6209
▁Geo	-11.621
0:	-11.6217
▁ncols	-11.6223
cls	-11.6226
installed	-11.6235
rt	-11.6236
▁tcp	-11.6239
▁1.1	-11.6239
▁nbytes	-11.6244
▁'{0}/	-11.6244
▁cname	-11.6245
▁Branch	-11.6254
▁Question	-11.6254
▁Secret	-11.6254
▁Verify	-11.6254
gaussian	-11.6256
▁trimmed	-11.626
▁discover	-11.6267
▁revisions	-11.6276
exclude	-11.6279
ian	-11.6279
▁band	-11.6282
▁{1}"	-11.6283
qlmap	-11.6288
▁distributions	-11.629
▁always	-11.6292
▁torrent	-11.6293
▁verb	-11.6293
▁press	-11.63
▁definitions	-11.63
tbot	-11.6302
▁xp	-11.631
▁statistics	-11.6311
▁coupon	-11.632
▁piece	-11.6323
▁Circle	-11.6323
▁Member	-11.6324
▁kv	-11.6327
▁Export	-11.6327
▁colormap	-11.6332
▁alive	-11.6336
▁badge	-11.6339
▁galaxy	-11.634
▁macro	-11.6347
▁Features	-11.635
▁xonsh	-11.635
▁prefetch	-11.6352
▁ask	-11.6355
▁attached	-11.6361
sensor	-11.6361
SQL	-11.6362
▁WARNING	-11.6366
workdir	-11.6368
▁downloaded	-11.6372
▁sqlite	-11.6374
▁Perm	-11.6375
▁truncated	-11.6379
database	-11.6379
NT	-11.6383
▁invoke	-11.6386
iddleware	-11.6388
▁keypair	-11.639
▁play	-11.639
▁lin	-11.6392
▁Stub	-11.6393
▁Modified	-11.6393
▁teacher	-11.6394
▁Light	-11.6394
▁Duplicate	-11.6394
▁shortcut	-11.6396
▁paste	-11.6397
▁documentation	-11.6402
▁publisher	-11.6407
▁patches	-11.6409
▁Render	-11.6411
}/	-11.6412
▁symmetric	-11.6412
sign	-11.6417
▁roll	-11.6418
▁Pass	-11.6418
▁formatting	-11.6421
▁gpg	-11.6424
▁uptime	-11.6424
gzip	-11.6437
▁xmin	-11.6439
|'	-11.6446
▁varnames	-11.6447
▁'*.	-11.6448
▁negatives	-11.6449
exp	-11.6449
▁website	-11.6451
▁Whe	-11.6459
▁Engine	-11.6464
hosts	-11.6465
▁coroutine	-11.6466
▁Old	-11.6466
SVG	-11.6467
▁conflicts	-11.6468
▁nnz	-11.6468
▁VALUES	-11.6469
▁EMPTY	-11.6469
▁confirmation	-11.6472
entries	-11.6472
▁sklearn	-11.6475
ui	-11.6476
▁diffs	-11.6481
▁Locale	-11.6481
origin	-11.6482
▁compatible	-11.6484
low	-11.6485
▁Patterns	-11.6487
▁avatar	-11.6487
sec	-11.6489
▁ipaddr	-11.6494
▁setter	-11.6497
▁permanent	-11.6498
▁Note	-11.6503
▁posts	-11.6503
branch	-11.6504
iterkeys	-11.6505
▁FOR	-11.651
▁RSA	-11.651
▁imdb	-11.6512
▁scaled	-11.6522
▁Blob	-11.6527
thru	-11.6533
itch	-11.6535
▁summarize	-11.6537
▁itemgetter	-11.6537
▁chapter	-11.6538
▁weak	-11.6539
hi	-11.654
▁NETWORK	-11.654
▁potential	-11.6541
▁Factor	-11.6542
▁buffering	-11.6544
▁hsv	-11.6549
▁nothing	-11.655
▁transition	-11.6556
▁Work	-11.6562
po	-11.6562
▁plist	-11.6563
connection	-11.6568
▁solid	-11.6573
▁years	-11.6574
latest	-11.6577
▁dg	-11.6582
required	-11.6583
▁subplots	-11.6584
▁keyname	-11.6587
▁Single	-11.6592
▁joint	-11.6594
process	-11.6594
▁paginate	-11.6595
▁mkt	-11.6595
▁gettext	-11.6599
▁iterate	-11.6599
▁white	-11.6606
▁Hook	-11.6606
▁bold	-11.6607
NAME	-11.6608
nodes	-11.6609
▁3.5	-11.661
▁Sort	-11.6613
▁PYTHON	-11.6613
loop	-11.6614
▁vertical	-11.6617
▁replacements	-11.6618
▁microseconds	-11.6619
reference	-11.6622
▁INVALID	-11.6623
0-9	-11.6625
▁eigvals	-11.6626
▁ab	-11.6629
▁groupby	-11.6633
▁vert	-11.6636
▁Normalize	-11.6637
▁Maximu	-11.6638
▁tparams	-11.6639
▁vms	-11.6639
▁soft	-11.6646
LOG	-11.665
TIME	-11.6651
▁pca	-11.6652
clean	-11.666
▁fa	-11.6661
pot	-11.667
▁unescape	-11.6671
▁Left	-11.6678
▁Transaction	-11.6678
▁consensus	-11.6682
▁obstime	-11.6686
▁Hole	-11.6686
▁63	-11.6687
▁topology	-11.6689
▁Pair	-11.6691
▁approx	-11.6692
qualities	-11.6696
▁norms	-11.6698
▁deltas	-11.6698
RE	-11.6705
▁xmodule	-11.6728
▁pkgname	-11.6734
▁ptype	-11.6738
▁HEAD	-11.6744
▁coordinates	-11.6747
▁Other	-11.675
commit	-11.6752
▁ff	-11.6752
▁outdir	-11.6753
▁unavailable	-11.6755
▁INT	-11.6757
▁discrete	-11.6758
▁restrict	-11.676
▁slash	-11.6763
▁doit	-11.6765
▁tight	-11.6765
▁Don	-11.6772
▁invalidate	-11.6773
▁pubkey	-11.6776
▁comma	-11.6778
▁license	-11.6779
▁station	-11.6783
▁Sign	-11.6784
▁LOGIN	-11.6786
▁nova	-11.6788
modified	-11.6792
▁programs	-11.6798
available	-11.6799
▁cant	-11.6799
ipv	-11.6802
▁loading	-11.6805
wt	-11.6819
zero	-11.6822
▁Clear	-11.6823
▁Interval	-11.6824
▁FOUND	-11.6824
▁borrow	-11.6824
▁Translation	-11.6827
upper	-11.6831
▁degrees	-11.6832
mote	-11.6837
▁mutual	-11.6837
▁Activit	-11.685
▁hue	-11.685
nn	-11.6852
npartitions	-11.6853
ci	-11.6853
&=	-11.6854
way	-11.6855
▁subdomain	-11.6856
lemwise	-11.6859
fast	-11.686
expr	-11.6862
power	-11.6864
▁kit	-11.6867
numpy	-11.688
▁fi	-11.6881
▁orm	-11.6891
ec	-11.6896
▁Forward	-11.6897
▁Constructor	-11.6897
▁Controller	-11.6898
▁LAST	-11.69
▁rational	-11.6903
▁LAYERS	-11.6903
▁bank	-11.6906
▁exactly	-11.6908
▁Any	-11.6909
▁polynomial	-11.6909
▁extent	-11.691
▁scroll	-11.691
▁prepend	-11.6912
▁resolution	-11.6913
▁Ar	-11.692
words	-11.6922
▁Specifie	-11.6924
▁{1}.	-11.6926
▁Remov	-11.6927
▁{0}\	-11.6933
▁UPDATE	-11.6938
send	-11.6939
unicode	-11.694
▁Scala	-11.6943
▁dp	-11.6943
both	-11.6945
▁Bar	-11.6947
el	-11.6948
IO	-11.6954
green	-11.6955
▁Binar	-11.6958
▁operators	-11.696
▁cases	-11.6969
um	-11.6972
▁UNICODE	-11.6973
▁tee	-11.6974
ul	-11.6978
▁vocabulary	-11.6983
xlim	-11.6987
▁sigmoid	-11.6988
▁Next	-11.6988
▁floats	-11.6989
▁facecolor	-11.6997
alias	-11.6997
▁nbits	-11.6997
▁neighbor	-11.7
▁sph	-11.7002
▁mysql	-11.7005
▁scorer	-11.7006
▁mobile	-11.7011
dt	-11.7013
sales	-11.7018
logger	-11.7025
transaction	-11.7026
▁customer	-11.7029
▁'(\\	-11.7029
▁positives	-11.7029
▁sv	-11.7034
▁idle	-11.7042
could	-11.7043
▁flist	-11.705
▁snr	-11.7051
getpass	-11.7053
▁gate	-11.7057
▁relationship	-11.7057
▁LINE	-11.7058
▁dead	-11.7059
▁clause	-11.706
▁persist	-11.7061
▁Static	-11.7071
▁multigraph	-11.7072
af	-11.7073
chown	-11.7073
▁something	-11.7073
▁ub	-11.7077
hildren	-11.7079
eobj	-11.708
▁newpath	-11.7083
PUT	-11.7091
▁Real	-11.7097
exit	-11.7098
after	-11.71
▁Uni	-11.7101
certificate	-11.7103
▁probes	-11.7109
▁wav	-11.711
byte	-11.7111
dest	-11.7114
▁subsection	-11.712
▁caffe	-11.7121
▁Operator	-11.7121
▁extrude	-11.7122
>/	-11.7123
ids	-11.7123
▁normalization	-11.7134
same	-11.7136
▁ACCEPT	-11.7138
ic	-11.714
▁SQ	-11.7141
▁quteproc	-11.7142
sublime	-11.7145
iso	-11.715
▁caption	-11.7155
▁visibility	-11.7157
events	-11.7166
HOME	-11.7171
▁CF	-11.7172
marker	-11.7172
▁stopped	-11.7174
conn	-11.7174
▁cms	-11.7175
▁kerns	-11.7175
▁restype	-11.7178
endpoint	-11.718
▁Hell	-11.7181
grains	-11.7184
▁medium	-11.7185
▁annotate	-11.7189
▁Success	-11.7189
score	-11.7194
▁Square	-11.7197
▁derphi	-11.7198
▁Async	-11.72
▁Setup	-11.72
▁OB	-11.7204
scripts	-11.7207
▁principal	-11.721
▁cpus	-11.7214
vals	-11.7216
▁!'	-11.7216
▁evokeds	-11.7219
▁arrow	-11.7222
▁delayed	-11.7223
▁alarm	-11.7225
▁multipart	-11.7231
▁TARGET	-11.7233
▁detach	-11.7234
▁swift	-11.7243
▁onerror	-11.7247
▁icons	-11.7247
refresh	-11.7249
▁CH	-11.7251
contact	-11.7256
▁stuff	-11.7258
7\	-11.7261
OK	-11.7262
usage	-11.7267
gis	-11.727
▁hyp	-11.7273
▁Thickness	-11.7273
▁conds	-11.7277
+)	-11.7278
▁Fail	-11.7278
▁comm	-11.7279
oup	-11.7282
▁why	-11.7282
▁formula	-11.7282
▁esc	-11.7285
▁persistent	-11.7285
pn	-11.7287
▁circula	-11.7287
▁libc	-11.729
▁categorical	-11.7291
ization	-11.7293
obs	-11.7295
▁imap	-11.7295
projs	-11.7301
▁microsecond	-11.7302
shift	-11.7305
repos	-11.7305
22	-11.7306
▁nr	-11.7313
▁authorization	-11.7322
qutebrowser	-11.7323
▁36	-11.7328
▁movie	-11.7331
▁hr	-11.7338
▁Dist	-11.7345
▁AGENT	-11.7348
▁Delta	-11.735
▁Edge	-11.735
▁crl	-11.7352
▁ctf	-11.7353
▁cand	-11.7355
▁iv	-11.7355
NS	-11.7356
/{0}/	-11.7357
▁mrk	-11.7358
▁hive	-11.7363
▁discount	-11.7365
▁orphan	-11.7366
▁stddev	-11.7366
▁crit	-11.7369
▁mass	-11.737
▁Fixe	-11.7371
▁fx	-11.7374
▁todo	-11.7375
attributes	-11.7377
▁horizontal	-11.7377
uri	-11.7381
▁fo	-11.7381
▁Extract	-11.7381
secret	-11.7385
csr	-11.7386
▁patched	-11.7395
▁rdata	-11.7396
6\	-11.7399
timezone	-11.7406
man	-11.7409
'{	-11.7409
▁sentry	-11.7411
amp	-11.7413
▁Items	-11.7414
quote	-11.7421
▁others	-11.7422
terms	-11.7425
▁Component	-11.7427
▁lwork	-11.7432
▁APPS	-11.7433
▁throttle	-11.7436
▁capabilities	-11.7436
▁regression	-11.7441
▁slots	-11.7444
▁committer	-11.7445
▁watcher	-11.7445
▁criterion	-11.7445
▁subnets	-11.7446
▁meter	-11.7447
▁secondary	-11.7451
▁Mac	-11.7461
▁sect	-11.7464
▁tap	-11.7476
▁cy	-11.7479
▁yes	-11.7481
btn	-11.7484
▁Segments	-11.7486
external	-11.7489
▁nzb	-11.7494
▁resolved	-11.7498
NO	-11.7504
member	-11.7505
▁Alias	-11.7505
▁minibatch	-11.7507
▁STDOUT	-11.7508
▁Worker	-11.7508
driver	-11.752
▁diagonal	-11.7525
▁GROUP	-11.7527
':'	-11.7531
▁supply	-11.7532
FMT	-11.7532
▁nave	-11.7532
▁ENV	-11.7532
▁reserved	-11.7536
▁twitter	-11.7539
80\	-11.754
dump	-11.7543
▁intent	-11.7547
▁setuptools	-11.7548
▁limited	-11.7549
▁ftp	-11.7551
moving	-11.7555
▁wmi	-11.7566
clip	-11.757
▁dnn	-11.7579
▁du	-11.7584
expires	-11.7584
▁Signal	-11.7585
▁Master	-11.7585
▁distrib	-11.7586
▁convolve	-11.7587
▁assumptions	-11.7588
▁longest	-11.7588
▁pardir	-11.7588
▁CHUNK	-11.759
▁65535	-11.759
embedded	-11.7592
▁imports	-11.7593
▁ugettext	-11.7595
▁dacl	-11.7598
▁outcome	-11.7599
▁Diff	-11.7599
▁Patch	-11.76
pkl	-11.7601
▁pagination	-11.7601
▁routing	-11.7602
▁succeeded	-11.7603
▁EC	-11.7605
9'	-11.7606
complete	-11.7613
▁reviewer	-11.7618
ignature	-11.7625
else	-11.7627
▁amp	-11.7633
▁{}\	-11.7636
▁strong	-11.7638
▁!	-11.7647
▁204	-11.7652
▁own	-11.7653
dc	-11.766
▁reduced	-11.7663
▁Scenario	-11.7664
sql	-11.7664
▁Fix	-11.7665
an	-11.7666
▁intersect	-11.7668
▁deadline	-11.7668
▁scanner	-11.7669
▁grouping	-11.7672
▁USERNAME	-11.7679
▁flt	-11.768
▁lm	-11.7685
▁flattened	-11.7689
reload	-11.7691
▁Foo	-11.7697
▁guest	-11.77
▁sphinx	-11.77
▁ram	-11.7701
▁contacts	-11.7705
record	-11.7708
▁responses	-11.7712
▁outputnode	-11.772
▁chs	-11.7721
organisation	-11.7723
▁hw	-11.7724
CC	-11.7736
rel	-11.7738
inner	-11.7738
▁locate	-11.7739
▁interpret	-11.7743
▁Marker	-11.7745
▁endrec	-11.7747
▁closure	-11.775
▁Informati	-11.7754
▁SOURCE	-11.7754
▁coding	-11.7755
▁unich	-11.7765
▁prediction	-11.777
▁fragments	-11.777
▁Sys	-11.7773
▁cacert	-11.7774
▁violations	-11.7777
▁hfreq	-11.7778
▁copied	-11.7783
▁Complete	-11.7783
seconds	-11.7785
▁Stats	-11.7787
▁smooth	-11.7797
▁hess	-11.78
▁ml	-11.7802
QUERY	-11.7804
basic	-11.7804
reason	-11.7805
passwd	-11.7805
saltenv	-11.7806
▁tv	-11.7807
smtp	-11.7807
▁htable	-11.7808
▁Disable	-11.781
TEST	-11.7812
▁blocked	-11.7813
▁analyze	-11.7815
▁Shape	-11.7818
▁general	-11.7818
▁enforce	-11.782
▁wd	-11.7821
▁supplied	-11.7824
▁tetragrid	-11.7824
▁taskid	-11.7829
simplefilter	-11.7831
▁workbook	-11.7832
▁kappa	-11.7834
▁weekday	-11.7834
dat	-11.7835
000000.0	-11.7837
▁Normal	-11.7837
▁Datastore	-11.7839
▁PIL	-11.7839
▁CURRENT	-11.784
▁pdb	-11.785
/.	-11.7854
▁OR	-11.7856
▁SIG	-11.7856
▁ctrl	-11.7856
▁radians	-11.7865
▁icrs	-11.7865
de	-11.7866
browser	-11.7875
warn	-11.7879
▁thumb	-11.7885
policy	-11.7885
cachedir	-11.7892
▁prepared	-11.7892
▁opened	-11.7894
▁OF	-11.7896
review	-11.7898
▁assume	-11.7901
▁Execute	-11.7902
▁terminate	-11.7904
▁Definition	-11.7905
multiply	-11.7907
▁Power	-11.7909
▁chunked	-11.7911
▁linkage	-11.7911
▁chi	-11.7911
▁iir	-11.7912
stone	-11.7914
▁banner	-11.7914
▁taxa	-11.7918
▁metaclass	-11.7918
▁observer	-11.7919
▁accessible	-11.7919
▁ORDER	-11.7921
bound	-11.7922
losses	-11.7925
▁compose	-11.7926
▁analysis	-11.7927
▁pseudo	-11.7927
▁ping	-11.7933
21	-11.7934
▁libraries	-11.7937
prime	-11.7941
▁bcs	-11.7944
▁formatters	-11.7962
fft	-11.7966
▁rar	-11.7969
▁\'	-11.7969
priority	-11.7976
▁Schedule	-11.7979
▁Support	-11.7983
▁elide	-11.7984
▁Err	-11.7987
▁Mobile	-11.7987
▁EXISTS	-11.7988
▁Sync	-11.7988
▁COORD	-11.7988
▁toposort	-11.799
▁frequencies	-11.7992
▁Shared	-11.7993
▁SECRET	-11.7994
▁Dev	-11.7998
▁imshow	-11.7998
▁nltk	-11.8001
removed	-11.8005
():	-11.8009
▁built	-11.801
▁bt	-11.8012
▁fsl	-11.8013
▁github	-11.8014
▁adjustment	-11.8023
▁nth	-11.8028
track	-11.803
pad	-11.8032
argtypes	-11.8033
pop	-11.8033
▁memberships	-11.8035
▁lms	-11.8036
▁NODE	-11.8037
▁cid	-11.804
original	-11.8053
verify	-11.8055
ungettext	-11.8057
▁Program	-11.8059
ottom	-11.8062
ambda	-11.8064
▁associate	-11.8064
▁RESOURCE	-11.807
▁Example	-11.807
▁Active	-11.807
▁nesting	-11.8075
▁descriptions	-11.8076
▁inclusive	-11.8077
▁CONTROL	-11.8079
▁WSGI	-11.8082
▁mongo	-11.8083
▁purchase	-11.8085
▁largest	-11.8086
▁matlist	-11.8087
▁perspective	-11.8092
▁distro	-11.8097
▁regular	-11.8098
▁Bits	-11.8098
▁ADD	-11.8111
▁releases	-11.8112
▁'..	-11.8116
▁Person	-11.8121
▁Na	-11.8122
▁Replace	-11.8124
▁dbc	-11.8126
▁validated	-11.8127
dst	-11.8127
scene	-11.8136
keystone	-11.8137
▁cred	-11.8139
▁%.2	-11.814
getenv	-11.8145
backup	-11.8148
▁TASK	-11.8148
▁Skein	-11.8153
unable	-11.8156
▁blade	-11.8156
▁wanted	-11.8157
▁4096	-11.8158
▁enroll	-11.8161
▁cql	-11.8162
details	-11.8167
▁hypervisor	-11.8169
▁ini	-11.817
vailable	-11.817
▁45	-11.8177
▁skipping	-11.8178
colors	-11.8186
▁association	-11.8187
INTO	-11.8187
13	-11.8191
UM	-11.8191
▁NAMES	-11.8198
▁chains	-11.8204
▁social	-11.8212
▁unable	-11.8212
▁defer	-11.8213
▁mmap	-11.8214
▁'\\\\	-11.8214
nih	-11.8218
fixed	-11.8218
53	-11.8222
absent	-11.8222
▁Rotate	-11.8225
▁dash	-11.8225
▁da	-11.8228
▁authorize	-11.8231
▁429496729	-11.8237
▁Datetime	-11.8241
▁followee	-11.8244
pem	-11.8255
▁locks	-11.8256
▁expects	-11.8257
authorized	-11.8258
▁sound	-11.8259
▁gdb	-11.8272
▁shipping	-11.8276
▁Mod	-11.8278
1.	-11.8283
▁fstype	-11.8284
wrap	-11.8288
sbin	-11.83
LINE	-11.8302
lxc	-11.8309
pk	-11.8313
▁inactive	-11.8314
beta	-11.8316
▁ic	-11.8317
artist	-11.8318
▁stcs	-11.8319
protocol	-11.832
▁lu	-11.8322
▁Trigger	-11.8322
▁monomial	-11.8325
▁energy	-11.8326
▁crypt	-11.8327
▁readout	-11.8327
▁benchmark	-11.8327
▁varkw	-11.8328
▁foot	-11.8332
datastore	-11.8333
eval	-11.8333
▁autoload	-11.8334
▁READ	-11.8335
▁{0},	-11.8335
▁Var	-11.8335
▁multiline	-11.8336
▁pivot	-11.8337
▁worst	-11.8338
rules	-11.8347
▁rebuild	-11.8349
▁omit	-11.8353
▁stoc	-11.8355
/{0}	-11.836
▁"%(	-11.8364
▁framework	-11.837
▁NONE	-11.838
parts	-11.8381
▁zlib	-11.8381
▁resume	-11.8382
▁hold	-11.8385
▁deque	-11.8385
undefined	-11.8393
▁Gen	-11.8394
▁lex	-11.8395
▁srcdir	-11.8405
▁syspath	-11.8407
▁Video	-11.8408
tenant	-11.8408
0!	-11.8408
▁boundaries	-11.8409
▁dummies	-11.8409
▁reduction	-11.841
collection	-11.8411
▁applied	-11.8415
▁jwt	-11.8417
▁morsel	-11.8417
]\	-11.8419
flow	-11.842
▁ckan	-11.842
▁subtensor	-11.8421
▁decompress	-11.8423
▁METRICS	-11.8425
▁succ	-11.8425
sqf	-11.8433
▁Opt	-11.8434
▁600	-11.8435
▁requester	-11.8441
▁conda	-11.8451
▁fully	-11.8462
▁passb	-11.8462
tasks	-11.8463
orbidden	-11.8467
targets	-11.8475
▁errback	-11.8477
budget	-11.8487
▁Progress	-11.8494
▁Suffix	-11.8494
▁Slice	-11.8497
▁DIRECTORY	-11.8498
▁Supported	-11.8499
▁ALLOWED	-11.8499
▁yi	-11.8499
▁DAY	-11.8502
▁fds	-11.8504
▁periods	-11.8505
▁numerator	-11.8505
▁ENABLED	-11.8511
▁svn	-11.8511
▁resample	-11.8512
fr	-11.8513
▁elp	-11.8514
troid	-11.8516
▁participant	-11.8519
stable	-11.8523
▁blocksize	-11.8525
='%	-11.8525
human	-11.8528
▁SHA	-11.8533
efore	-11.8534
▁frm	-11.8534
.0	-11.8535
HKEY	-11.8539
▁FORMATS	-11.8543
del	-11.8546
".'	-11.8546
▁Standard	-11.855
elf	-11.8556
▁Flow	-11.8558
▁tensors	-11.8558
ping	-11.8562
▁Scale	-11.8565
▁'./	-11.8565
flocker	-11.8566
postgres	-11.8566
▁problems	-11.8569
progress	-11.8576
▁cloned	-11.8577
▁Monitor	-11.8581
nearest	-11.8582
▁during	-11.8584
▁removal	-11.8584
▁ADDON	-11.8584
▁regularizer	-11.8585
▁termination	-11.8586
▁backoff	-11.8586
▁plat	-11.8587
▁grouped	-11.8589
▁nullable	-11.8589
▁SUCCESS	-11.859
▁enrolled	-11.8591
▁Frames	-11.8595
▁replay	-11.8595
AND	-11.8596
▁xticks	-11.8596
patch	-11.8596
▁recipe	-11.8599
nrollment	-11.86
▁getaddrinfo	-11.8611
'{0}	-11.8614
metric	-11.8619
capfd	-11.862
)\\	-11.8632
refs	-11.8635
light	-11.8636
arp	-11.8641
scoring	-11.8644
▁rpm	-11.8655
▁relu	-11.8656
pw	-11.8658
▁reindex	-11.8659
outputnode	-11.8659
identity	-11.8659
▁Objects	-11.8661
▁dbg	-11.8663
▁detrend	-11.8669
▁probabilities	-11.867
08	-11.8671
▁ratings	-11.8674
surf	-11.8675
▁demultiplex	-11.8677
▁spam	-11.8677
▁coo	-11.8681
▁DELETE	-11.8681
▁reloader	-11.8682
][	-11.8687
61	-11.8694
▁directives	-11.8696
▁toolbar	-11.87
▁Around	-11.8701
))'	-11.8707
▁ymax	-11.8708
▁waiter	-11.8712
▁contiguous	-11.8716
used	-11.8721
▁sums	-11.8721
▁ap	-11.8729
indent	-11.8735
▁We	-11.874
EXIST	-11.8743
▁substitute	-11.8743
nfo	-11.8743
batch	-11.8743
dns	-11.8744
ckan	-11.8745
duration	-11.8745
android	-11.8746
▁pro	-11.8748
▁clauses	-11.875
▁Down	-11.8753
▁Abort	-11.8757
▁ITEM	-11.8757
▁Right	-11.8757
▁enough	-11.8758
▁DETAILS	-11.8758
▁Freq	-11.8762
bd	-11.8763
▁dlg	-11.8764
callback	-11.8764
API	-11.8765
▁comb	-11.8766
argument	-11.8766
▁sensitive	-11.8767
▁simulate	-11.8767
▁appear	-11.8772
▁brackets	-11.8775
▁dbus	-11.8778
▁outliers	-11.8779
▁kde	-11.8779
▁Iter	-11.8781
▁individuals	-11.8784
▁submission	-11.8785
▁fnames	-11.8786
▁nbrs	-11.8796
▁spider	-11.8797
▁independent	-11.8806
▁opcode	-11.8815
▁tty	-11.8816
wo	-11.8829
▁Malform	-11.8832
oin	-11.8834
256'	-11.8834
▁vv	-11.8836
▁FIELDS	-11.8838
▁barcodes	-11.884
▁gd	-11.8843
▁IF	-11.8845
▁receive	-11.8846
▁Gaussian	-11.8846
▁Registration	-11.8846
▁Ticket	-11.8846
▁Leaf	-11.8846
▁punctuation	-11.8847
▁Trace	-11.8848
second	-11.8851
▁netaddr	-11.8851
▁Training	-11.8851
▁made	-11.8854
▁INSTALLED	-11.8856
128	-11.8857
▁datatype	-11.8858
▁vehicle	-11.8859
▁fin	-11.8864
▁stock	-11.8867
sync	-11.8871
▁appengine	-11.8874
▁wildcard	-11.8874
▁hadoop	-11.8876
raversal	-11.8876
▁recs	-11.8881
▁buttons	-11.8882
▁zz	-11.8885
▁percentile	-11.8888
monitor	-11.8892
▁migrations	-11.8899
▁modpath	-11.89
▁uname	-11.8902
▁insecure	-11.8907
▁bear	-11.891
▁Some	-11.8912
RGB	-11.8914
">\	-11.8916
pattern	-11.8918
keep	-11.8918
mm	-11.8919
▁Delet	-11.8922
▁populate	-11.8924
▁fits	-11.8931
▁viewer	-11.8934
▁linestyle	-11.8935
▁Generat	-11.8936
▁Condition	-11.8936
▁Detect	-11.8936
▁Problem	-11.8936
▁SEPARATOR	-11.8936
▁betweenness	-11.8937
▁48	-11.8937
hg	-11.8941
▁INPUT	-11.8943
▁Sec	-11.8946
▁COUNT	-11.8949
▁decorators	-11.8955
▁overlaps	-11.8956
▁Direction	-11.8958
PY	-11.8965
▁Refs	-11.8967
▁proba	-11.8971
apply	-11.8972
normcase	-11.8974
▁az	-11.8976
▁copyfile	-11.8984
▁gfile	-11.8984
▁Optional	-11.8992
▁Serial	-11.8999
▁lockfile	-11.9009
▁fork	-11.9019
missing	-11.9019
▁Smart	-11.9022
▁rescale	-11.9024
IDATE	-11.9027
▁ranks	-11.9027
namecheap	-11.9028
▁glyph	-11.9028
▁roidb	-11.9029
▁sopel	-11.9035
▁basket	-11.9035
▁pylab	-11.904
▁apikey	-11.9042
▁SO	-11.9043
▁Face	-11.9047
▁newargs	-11.9048
▁QUERY	-11.905
▁tweets	-11.9052
▁indx	-11.9057
mri	-11.9058
▁readonly	-11.9062
▁exercise	-11.9062
▁reviews	-11.9063
▁stamp	-11.9064
▁finalize	-11.9065
▁pci	-11.9067
▁ufunc	-11.9076
dims	-11.9076
▁Co	-11.9079
▁probe	-11.9085
vision	-11.91
book	-11.91
xx	-11.9101
▁Back	-11.9101
INSERT	-11.9108
▁morph	-11.9109
▁vname	-11.9112
▁argname	-11.9113
ormpath	-11.9114
▁divide	-11.9117
ise	-11.9118
▁Polygon	-11.9119
sail	-11.912
\\.	-11.9127
-07	-11.9127
▁fnd	-11.9128
▁qry	-11.9133
▁nav	-11.9134
aa	-11.9152
flux	-11.9156
▁resnet	-11.9161
▁hashed	-11.9165
▁Writ	-11.9182
arity	-11.9186
▁sitemap	-11.9187
hook	-11.9187
▁remotes	-11.9199
gateway	-11.9202
▁separate	-11.9203
contrib	-11.9204
extension	-11.9206
▁exempt	-11.9212
▁Finish	-11.9212
▁divisor	-11.9212
▁Facilit	-11.9213
▁6.0	-11.9214
▁returners	-11.9214
▁Minion	-11.9216
▁msv	-11.9216
▁later	-11.9217
▁pton	-11.9217
▁Subnet	-11.9218
▁autoscale	-11.922
▁interpreter	-11.9221
▁Kind	-11.9224
▁similarity	-11.9226
▁confidence	-11.9227
▁experiment	-11.9228
35	-11.9228
▁trig	-11.9228
▁shadow	-11.9231
▁PUBLIC	-11.9233
▁optparse	-11.9238
resources	-11.9241
▁xb	-11.9243
▁perc	-11.9244
▁receipt	-11.9246
▁combinations	-11.9258
▁Look	-11.9259
▁"{	-11.926
rf	-11.9266
▁workspace	-11.9273
▁AES	-11.9283
finance	-11.9288
ABLE	-11.9293
foobar	-11.9298
▁city	-11.93
schedule	-11.93
enkins	-11.9301
▁ctr	-11.9303
▁iterables	-11.9305
▁Subject	-11.9305
▁centrality	-11.9305
▁Asset	-11.9307
▁sentinel	-11.9308
▁upp	-11.9309
▁exceeded	-11.9309
▁placement	-11.9309
eautiful	-11.9311
▁Gate	-11.9311
▁our	-11.9312
▁120	-11.9313
▁vi	-11.9314
▁executor	-11.9314
▁ancestors	-11.9315
▁suffixes	-11.9315
▁moon	-11.9317
▁peering	-11.9317
▁DOWNLOAD	-11.9318
▁Bound	-11.9321
cl	-11.9324
▁Ip	-11.9327
▁Button	-11.9329
▁LW	-11.9329
▁notice	-11.9329
▁PROPERT	-11.933
▁SMTP	-11.9333
▁CA	-11.9334
▁colon	-11.9339
▁tidy	-11.9342
▁gte	-11.9342
▁ENOE	-11.9348
▁stanza	-11.9357
▁exchange	-11.9361
fa	-11.9363
▁Separate	-11.9365
▁trainer	-11.9368
exact	-11.9373
▁21	-11.9375
443	-11.9381
▁pot	-11.9381
nd	-11.9382
np	-11.9384
high	-11.9391
clear	-11.9391
openshift	-11.9392
ve	-11.9394
lready	-11.9394
▁Reverse	-11.94
▁millis	-11.9403
▁CHECK	-11.9404
▁SYS	-11.9405
▁ww	-11.9406
▁retention	-11.9408
▁adjusted	-11.9411
mnist	-11.9411
▁PLATFORM	-11.9414
ent	-11.9416
disabled	-11.9421
▁vrouter	-11.9425
▁UNKNOWN	-11.9426
▁msec	-11.9432
▁cause	-11.9433
▁'***	-11.9438
▁playlist	-11.9442
▁xmlns	-11.9462
▁marked	-11.9462
▁'!'	-11.9463
exception	-11.9467
▁Debug	-11.9468
▁mine	-11.947
▁dw	-11.9472
▁bears	-11.9475
expand	-11.948
▁blast	-11.9481
:%(	-11.9482
▁ac	-11.9488
negative	-11.9489
▁di	-11.9492
60.0	-11.9494
▁Section	-11.9495
▁Composite	-11.9495
▁Varint	-11.9495
▁atexit	-11.9497
▁HANDLER	-11.9499
▁midpoint	-11.95
▁overhang	-11.9502
%02	-11.9503
▁ctl	-11.9503
▁CSS	-11.9506
▁gca	-11.9508
▁privilege	-11.951
▁rtn	-11.951
▁vhost	-11.9513
ION	-11.9516
▁bh	-11.9519
▁Book	-11.952
▁coefficient	-11.9522
▁ctime	-11.9523
▁emr	-11.9524
▁coordinate	-11.9526
▁effects	-11.9529
▁nofollow	-11.9532
▁mirror	-11.9534
▁dbname	-11.954
'*'	-11.9541
▁timestamps	-11.9543
▁'(%	-11.9548
▁votes	-11.9548
▁invite	-11.9549
▁transforms	-11.9549
▁fqdn	-11.955
▁Craft	-11.9552
restart	-11.9559
cast	-11.9561
features	-11.9563
bucket	-11.9564
trict	-11.9565
▁stylesheet	-11.9567
unparse	-11.9573
▁chroot	-11.9573
delay	-11.9576
▁datadir	-11.9579
▁Enable	-11.9583
integer	-11.9587
▁Long	-11.9589
▁Crypto	-11.9591
▁Home	-11.9591
▁Incorrect	-11.9591
▁Workflow	-11.9591
▁Const	-11.9591
▁responder	-11.9592
▁Override	-11.9593
standard	-11.9593
▁Multiplier	-11.9593
▁CHARS	-11.9596
▁fixup	-11.9596
▁liveaction	-11.9596
▁YAML	-11.9596
▁subscribe	-11.9598
upgrade	-11.9602
▁fromfile	-11.9603
▁makefile	-11.9603
▁likely	-11.9606
▁vp	-11.9607
▁pythoncom	-11.9611
▁Clean	-11.9611
▁unsubscribe	-11.9612
▁switches	-11.9612
▁instructions	-11.9618
▁gat	-11.962
▁another	-11.9623
▁injection	-11.9624
templates	-11.963
▁pil	-11.9632
▁SYSTEM	-11.9633
▁dis	-11.9634
card	-11.9635
monic	-11.9636
▁Std	-11.9641
▁Repeat	-11.9645
▁replaced	-11.9646
timetuple	-11.9648
▁primers	-11.9649
DNS	-11.9649
▁sos	-11.9651
▁vtype	-11.9651
▁fb	-11.9654
▁sockets	-11.9654
▁fixer	-11.9655
▁javascript	-11.9658
▁dll	-11.9662
▁1.2	-11.9664
▁Dependenc	-11.9667
▁leaves	-11.9668
▁hard	-11.9671
child	-11.9674
▁Gui	-11.9679
multi	-11.9682
final	-11.9684
posix	-11.9686
▁Fault	-11.9688
▁residue	-11.969
▁DEVICES	-11.9692
rpartition	-11.9692
▁MARKER	-11.9694
▁yticks	-11.9695
▁minimize	-11.9695
▁subtree	-11.9703
▁bufsize	-11.9705
▁BACKEND	-11.9709
▁minus	-11.9712
asc	-11.9719
▁outstream	-11.9721
▁ONE	-11.9722
▁fprime	-11.9723
equal	-11.9725
▁filediff	-11.9727
entity	-11.9731
▁bitmap	-11.9736
ce	-11.9738
lc	-11.9745
▁'//'	-11.9748
▁xaxis	-11.9757
▁Di	-11.9759
variate	-11.9761
witter	-11.9763
radius	-11.9766
baz	-11.9766
▁dictize	-11.9768
isposition	-11.977
insert	-11.9777
▁Modules	-11.9778
▁pyc	-11.9779
▁allocate	-11.9785
▁Suppress	-11.9785
must	-11.9785
▁Choice	-11.9786
hexlify	-11.9786
▁CLASSES	-11.9786
▁subpath	-11.9786
▁Shift	-11.9787
▁ljust	-11.9787
▁MODEL	-11.9788
▁Xml	-11.9789
▁PAYLOAD	-11.9791
▁explanation	-11.9791
▁ifaces	-11.9793
▁ADDR	-11.9796
rec	-11.98
ctl	-11.9801
fourier	-11.9803
▁GMT	-11.9803
▁equinox	-11.9805
▁continuous	-11.9806
columns	-11.9808
tooth	-11.9812
alert	-11.9813
▁Dens	-11.9814
▁123	-11.982
▁tried	-11.9821
▁Cmd	-11.9825
/%(	-11.9828
▁integers	-11.9829
▁Retrieve	-11.9831
▁polar	-11.9833
▁initialized	-11.9836
outer	-11.9836
▁nums	-11.9837
▁ENGINE	-11.9839
▁applications	-11.9842
free	-11.9846
▁xw	-11.9847
▁27	-11.9849
▁langs	-11.985
proto	-11.9857
fig	-11.9858
▁csc	-11.986
▁Compile	-11.9862
transparent	-11.9863
▁sibling	-11.9869
▁ack	-11.987
arbon	-11.9871
visuals	-11.988
virtual	-11.9883
▁solutions	-11.9884
suffix	-11.9884
deploy	-11.9885
▁Short	-11.9885
▁Publisher	-11.9886
azy	-11.9886
bottom	-11.9888
▁sampling	-11.9888
▁ESCAPE	-11.9889
▁converters	-11.9891
▁referrer	-11.99
▁ee	-11.9902
!"	-11.9903
▁UNIT	-11.9903
▁followed	-11.9904
▁them	-11.9906
▁peaks	-11.9907
defaults	-11.9913
▁eol	-11.9914
student	-11.9914
▁yielded	-11.9915
▁{{	-11.9923
▁descendant	-11.9924
ir	-11.993
▁jj	-11.9932
handlers	-11.9933
using	-11.9934
▁identifiers	-11.9938
▁EEG	-11.994
▁bl	-11.9942
▁lookups	-11.9946
jsonify	-11.995
▁av	-11.9953
▁bare	-11.9953
ava	-11.9956
▁pal	-11.9963
▁tracking	-11.9964
▁displayed	-11.9966
IN	-11.998
white	-11.9982
blue	-11.9983
trash	-11.9984
OIN	-11.9984
▁Cursor	-11.9985
▁Procedure	-11.9985
library	-11.9985
▁pairwise	-11.9987
▁ICON	-11.9987
▁MAIN	-11.9988
double	-11.9989
▁ADDRESS	-11.9992
▁also	-11.9992
▁bookmark	-11.9993
▁jit	-11.9993
▁lights	-11.9993
▁fstruct	-11.9995
▁CFG	-11.9995
▁ngram	-11.9996
▁wrt	-11.9997
▁sk	-12.0001
▁STATIC	-12.0001
1\	-12.0004
▁pmf	-12.0005
▁mus	-12.0006
▁die	-12.0008
▁dwi	-12.0008
revision	-12.0013
▁AUTO	-12.0013
+\\	-12.0016
▁ACTION	-12.0018
▁nout	-12.0019
▁derivative	-12.002
▁classification	-12.0024
werkzeug	-12.0024
ave	-12.0026
▁islice	-12.0029
▁Receive	-12.0034
▁am	-12.0036
rivate	-12.004
proj	-12.0042
▁startup	-12.0044
▁systemd	-12.0044
▁Values	-12.0054
spherical	-12.0059
▁completer	-12.0062
▁yaxis	-12.0068
▁2048	-12.0073
▁HASH	-12.0077
▁ansible	-12.0079
▁Red	-12.0079
SCRIPT	-12.0085
▁Cycle	-12.0086
▁Literal	-12.0086
gecos	-12.0087
▁nlags	-12.0088
▁255.0	-12.0088
▁know	-12.0089
▁99	-12.009
▁bottle	-12.0094
▁canonicalize	-12.0096
▁SUPPORTED	-12.0097
▁spectral	-12.01
lag	-12.01
pytree	-12.0101
ENTITY	-12.0101
formfield	-12.0103
▁"{1}"	-12.0111
vpc	-12.0113
▁lvl	-12.0116
▁freeze	-12.0123
▁rvs	-12.0131
▁vel	-12.0142
▁Quantit	-12.0147
▁caps	-12.0153
▁'5'	-12.0159
UF	-12.016
pipeline	-12.0161
oreign	-12.0164
▁frozen	-12.0166
?%	-12.0167
ST	-12.0172
arr	-12.0179
▁elems	-12.018
▁22	-12.0182
▁lw	-12.0182
▁tunnel	-12.0189
nbsp	-12.0191
▁Username	-12.0191
▁supplier	-12.0193
▁xf	-12.0193
▁CERT	-12.0194
▁Escape	-12.0195
▁debugger	-12.0195
▁1000000	-12.0196
▁KEYS	-12.0199
large	-12.02
▁au	-12.0201
ports	-12.0202
doctype	-12.0203
jpg	-12.0206
▁subtitles	-12.0208
socket	-12.0212
▁NUMBER	-12.0214
▁Con	-12.0214
▁writing	-12.0215
▁connector	-12.0216
trigger	-12.0217
▁SEARCH	-12.0218
▁commits	-12.0218
rud	-12.0222
documents	-12.0223
▁SCRIPT	-12.0225
▁Dim	-12.0231
failure	-12.0232
▁TD	-12.0235
▁balancer	-12.0247
xff	-12.0251
16'	-12.0255
▁vispy	-12.0256
▁cj	-12.0258
ither	-12.026
▁bitstr	-12.026
▁'([	-12.026
ct	-12.0263
▁popup	-12.0263
boot	-12.0267
▁finfo	-12.0269
merge	-12.027
redirect	-12.0274
▁rels	-12.0276
threads	-12.0278
20	-12.0278
console	-12.0287
▁sublist	-12.0287
searchre	-12.0288
▁ofile	-12.0289
HTML	-12.0291
▁Organization	-12.0291
▁Consul	-12.0291
▁Platform	-12.0291
▁Bundle	-12.0291
▁Statement	-12.0292
neck	-12.0293
▁penalty	-12.0293
▁guard	-12.0295
▁Timer	-12.0295
▁distribute	-12.0295
ops	-12.0295
▁linker	-12.0296
])'	-12.0297
▁spectrum	-12.0298
▁SEP	-12.03
▁subgraph	-12.0301
▁LANGUAGES	-12.0302
▁bti	-12.0302
▁ei	-12.0306
▁LEN	-12.0306
▁MEDIA	-12.0307
▁scatter	-12.0308
▁coro	-12.0311
▁pkcs	-12.0312
▁reorder	-12.0313
▁Pack	-12.0314
▁gw	-12.0315
vol	-12.0316
▁Exp	-12.0318
▁propagate	-12.032
objects	-12.032
▁flowgram	-12.0333
▁delegate	-12.0334
▁sizeof	-12.0335
▁plate	-12.0338
▁&&	-12.034
▁fromlist	-12.0347
▁blog	-12.0349
▁dipoles	-12.0354
math	-12.0356
VERSION	-12.036
▁blk	-12.0361
▁postfix	-12.0364
be	-12.0368
={0}'	-12.037
▁places	-12.0375
▁consume	-12.0376
▁35	-12.0377
ENTER	-12.0382
iptables	-12.0384
▁tooltip	-12.0388
▁gcrs	-12.0394
▁Period	-12.0395
▁timeperiod	-12.0401
country	-12.0401
redis	-12.0401
deletable	-12.0403
▁BINARY	-12.0403
▁SENSOR	-12.0403
before	-12.0404
▁uow	-12.0405
▁Wron	-12.0406
ckpt	-12.0406
▁acceptable	-12.0406
▁cib	-12.0416
▁plaintext	-12.0416
ware	-12.042
▁keyring	-12.0421
▁compound	-12.0423
▁processing	-12.0424
cms	-12.0428
▁getframe	-12.0429
▁seem	-12.0431
topic	-12.0435
▁recall	-12.0441
convert	-12.0444
▁'\\1	-12.0446
▁monitoring	-12.0448
▁Term	-12.0449
do	-12.0465
▁pay	-12.0472
▁shards	-12.0478
ep	-12.0481
rest	-12.0484
▁pathlist	-12.0485
istutils	-12.0485
attribute	-12.049
27	-12.0495
▁gateways	-12.0496
▁Proto	-12.05
▁Evaluator	-12.0501
▁Sale	-12.0503
▁fe	-12.0505
▁databases	-12.0505
▁Scope	-12.0506
logging	-12.0506
sigma	-12.0506
me	-12.0515
▁fout	-12.0516
-8	-12.0516
▁fontsize	-12.0521
▁belongs	-12.0523
">%	-12.0526
▁biases	-12.0527
▁cohorted	-12.0532
▁architecture	-12.0532
▁Fields	-12.0533
▁ifile	-12.0537
▁64'	-12.0548
▁keystone	-12.0551
uch	-12.0553
▁balance	-12.0558
▁dots	-12.0559
▁clsid	-12.0563
▁dont	-12.0566
wintypes	-12.0569
▁masks	-12.0571
▁argmin	-12.0571
▁drivers	-12.0571
(\'	-12.0574
single	-12.0577
▁Scan	-12.0578
▁brand	-12.0579
pg	-12.058
▁BYTES	-12.0581
well	-12.0581
▁Ring	-12.0582
▁raised	-12.0588
▁listeners	-12.0589
▁'3'	-12.0591
▁ipaddress	-12.0596
ine	-12.0601
▁mnt	-12.0602
▁Manipulat	-12.0607
▁Transport	-12.0607
▁similar	-12.0608
▁traffic	-12.0615
▁kk	-12.0616
xygen	-12.0617
▁schemas	-12.0617
▁Lin	-12.0618
examples	-12.062
▁identify	-12.0622
fullname	-12.0623
theme	-12.0624
credentials	-12.0625
END	-12.0626
▁fabtools	-12.0627
▁ES	-12.0628
▁LOCATION	-12.0629
▁zk	-12.0636
▁timeit	-12.0638
dig	-12.0642
▁varname	-12.0643
adjacency	-12.0643
▁{}.	-12.0651
apps	-12.0654
dummy	-12.0656
▁modifier	-12.0656
▁toplevel	-12.0658
nonlinearity	-12.0663
▁fro	-12.0671
▁extracted	-12.0675
cf	-12.0675
▁Initialize	-12.0677
▁querystring	-12.0678
ktime	-12.0684
▁Histor	-12.0685
fetch	-12.0693
uda	-12.0707
▁Bevel	-12.0715
▁ntwk	-12.0715
▁REQUIRED	-12.0715
▁Requirement	-12.0715
▁xk	-12.0715
▁Converter	-12.072
▁igw	-12.0721
▁envelope	-12.0721
UTC	-12.0722
▁ti	-12.0722
▁simp	-12.0723
▁namedtuple	-12.0725
tk	-12.0727
▁abi	-12.0727
▁FILENAME	-12.0727
▁tornado	-12.0729
▁lims	-12.0729
▁blobstore	-12.0731
▁objective	-12.0734
▁shelter	-12.0735
▁soap	-12.0735
▁nl	-12.0735
▁broken	-12.0736
▁Pre	-12.0737
▁wp	-12.0744
massform	-12.0747
▁printable	-12.0748
▁destdir	-12.0749
SSL	-12.075
attachment	-12.0756
▁integral	-12.076
▁localize	-12.0764
▁ISO	-12.0764
support	-12.0768
'|'	-12.0772
hide	-12.0774
▁wid	-12.0781
real	-12.0784
▁basepath	-12.0785
▁newer	-12.0804
lnum	-12.0806
deny	-12.0811
register	-12.0813
'\\	-12.0815
mp	-12.082
▁triple	-12.0821
LC	-12.0823
▁Decorator	-12.0823
▁Adapter	-12.0823
▁manually	-12.0825
▁Rack	-12.0826
drive	-12.0827
sudo	-12.0828
▁Know	-12.0829
▁dilation	-12.0829
▁cibfile	-12.0831
general	-12.0832
▁unregister	-12.0832
▁sentiment	-12.0832
▁EOF	-12.0835
▁subparser	-12.0836
finder	-12.0836
▁2000	-12.0836
▁mlab	-12.0837
▁orderby	-12.0837
ack	-12.0839
▁friendly	-12.0843
▁graphs	-12.0843
▁paginated	-12.0843
▁Layers	-12.0847
▁parsers	-12.0856
▁LM	-12.0857
▁ode	-12.0863
drop	-12.0871
▁behave	-12.0872
▁dask	-12.0874
minute	-12.0874
swap	-12.0874
▁slope	-12.0875
▁plots	-12.0875
▁proper	-12.0876
▁nin	-12.0879
xy	-12.0881
▁sessions	-12.0887
▁SS	-12.0894
▁ba	-12.0895
()\	-12.0896
accounts	-12.0903
▁fixtures	-12.0903
▁eig	-12.0906
▁certfile	-12.0907
▁Sent	-12.0908
▁PID	-12.091
tool	-12.0914
▁'/%	-12.0919
gui	-12.0928
▁75	-12.093
compute	-12.0931
▁al	-12.0932
▁Completion	-12.0933
▁Mongo	-12.0933
isatty	-12.0934
▁nitro	-12.0934
▁csgraph	-12.0936
▁against	-12.0937
hred	-12.0937
attname	-12.0938
▁WORK	-12.094
>"	-12.0941
],	-12.0941
▁affine	-12.0942
▁LINK	-12.0952
outlines	-12.0957
CFLAGS	-12.0958
▁obsolete	-12.0958
ll	-12.0964
▁opf	-12.0965
▁hop	-12.0969
export	-12.097
▁Lex	-12.0972
problem	-12.0974
connect	-12.0975
▁moment	-12.0977
registration	-12.0979
▁authority	-12.0981
={0}	-12.0983
▁analytics	-12.0984
▁ismethod	-12.0986
▁subdirs	-12.0987
▁aln	-12.0988
▁Grant	-12.0988
▁Slash	-12.0991
▁Bod	-12.0993
▁rdf	-12.0993
svg	-12.1001
▁accessing	-12.1003
▁ordinal	-12.1004
▁Norm	-12.1011
▁actor	-12.102
▁chk	-12.1021
▁trend	-12.1021
▁MIME	-12.1024
▁health	-12.1024
▁CREATE	-12.1032
▁nest	-12.1039
▁trials	-12.104
▁Mirror	-12.1044
▁Mean	-12.1044
▁exceed	-12.1046
mathjax	-12.1046
▁NEW	-12.1047
▁minpoly	-12.1047
▁LEVEL	-12.1049
▁past	-12.1049
▁naive	-12.105
▁singleton	-12.1051
▁MESSAGES	-12.1051
▁Magic	-12.1051
CONTENT	-12.1052
openssl	-12.1053
charset	-12.1059
▁checking	-12.106
▁analyzer	-12.1061
▁lng	-12.1061
▁OPEN	-12.1061
▁noop	-12.1067
▁TLS	-12.1071
▁MD	-12.1071
▁english	-12.1072
▁Pi	-12.1076
mem	-12.1077
▁FAILED	-12.1085
▁feat	-12.1089
▁poles	-12.1089
▁statistic	-12.1095
▁tvdb	-12.1096
▁ending	-12.1097
▁HTTPS	-12.1114
▁nv	-12.1126
lm	-12.1131
▁Inc	-12.1134
▁cons	-12.1135
▁Ignor	-12.1137
deployer	-12.1145
▁adapters	-12.115
▁ele	-12.115
▁nnet	-12.1151
401	-12.1155
▁Album	-12.1157
▁Payload	-12.1157
▁TRAIN	-12.1157
----------------	-12.1157
▁sitedir	-12.1158
▁renewal	-12.116
▁MANAGER	-12.116
▁lapack	-12.1161
MULTILINE	-12.1161
▁VERBOSE	-12.1162
▁REF	-12.1163
▁truth	-12.1163
▁chpi	-12.1165
CREATE	-12.1166
season	-12.1169
▁ninja	-12.1173
▁activities	-12.1173
screen	-12.1176
big	-12.118
crt	-12.1185
many	-12.1187
▁bvec	-12.1192
▁'----	-12.1193
▁ntp	-12.1197
▁questions	-12.1197
▁Xy	-12.1199
▁uwline	-12.1201
▁integration	-12.1204
▁gce	-12.1204
▁LI	-12.1204
▁dipole	-12.1205
dr	-12.1209
▁toolkit	-12.1211
▁linode	-12.1212
AR	-12.1213
▁works	-12.1213
constant	-12.1215
▁undo	-12.1215
▁"<	-12.1223
▁cfile	-12.1225
▁Aa	-12.1225
darray	-12.123
route	-12.123
▁submodule	-12.1231
▁192	-12.1237
thing	-12.1248
▁Updat	-12.1262
▁cascade	-12.1262
▁accumulate	-12.1267
▁Ext	-12.1268
▁Sigma	-12.127
▁Membership	-12.127
▁Annotation	-12.127
▁Convex	-12.1271
▁chosen	-12.1271
▁Pillar	-12.1271
▁diop	-12.1271
depth	-12.1272
▁WINDOWS	-12.1275
ohlc	-12.1276
▁'../	-12.1276
gluon	-12.1276
▁ASN	-12.1278
primary	-12.128
▁minimal	-12.1281
99	-12.1283
▁unary	-12.1287
▁bypass	-12.129
▁notebook	-12.1291
▁tagged	-12.1292
▁longitude	-12.1293
▁peers	-12.1295
blocks	-12.1297
▁containing	-12.1303
▁visual	-12.1304
▁STORE	-12.1306
▁numa	-12.1307
▁DWORD	-12.1308
▁CSV	-12.1311
▁runs	-12.1312
▁edited	-12.1313
▁wo	-12.1313
▁React	-12.1315
▁Rec	-12.1316
digits	-12.1319
▁universal	-12.1323
▁Prob	-12.1324
fp	-12.1327
dfdx	-12.1332
xtol	-12.1335
▁pagesize	-12.1353
31	-12.1371
US	-12.1378
▁lowercase	-12.1378
▁weeks	-12.1378
▁inbox	-12.1379
▁gh	-12.1384
▁Dimension	-12.1385
▁Plus	-12.1385
▁Duration	-12.1385
▁Collector	-12.1385
▁ctc	-12.1386
▁LOGGING	-12.1387
▁correctly	-12.139
black	-12.1393
wav	-12.1396
▁scales	-12.1397
▁ge	-12.1397
hidden	-12.14
▁timeseries	-12.14
▁Gzip	-12.1401
selector	-12.1404
tbl	-12.1408
▁Preference	-12.1411
▁changelog	-12.1411
describe	-12.1412
runtime	-12.1412
▁strand	-12.1414
ance	-12.142
tz	-12.1426
FS	-12.1432
=1'	-12.1432
pl	-12.1434
sympy	-12.1435
threshold	-12.1441
identifier	-12.1444
grep	-12.1444
▁hot	-12.1444
▁closer	-12.1447
onlyif	-12.1453
▁urandom	-12.1459
▁km	-12.1464
▁CC	-12.1471
constants	-12.1471
")	-12.1474
▁relations	-12.1481
followlinks	-12.1485
▁ran	-12.1486
exc	-12.1489
▁Def	-12.149
...	-12.1496
▁deserialize	-12.1496
▁Struct	-12.15
point	-12.1503
▁loose	-12.1506
▁octet	-12.1506
▁COLLECTION	-12.1507
▁SPAN	-12.1507
▁DEF	-12.1508
▁uppercase	-12.1508
▁filelist	-12.1508
pub	-12.1508
bridged	-12.1509
▁GR	-12.151
colon	-12.1511
▁coach	-12.1512
▁wr	-12.1513
▁harm	-12.1515
▁COURSE	-12.1515
meg	-12.1517
world	-12.1518
background	-12.1519
▁maxlag	-12.1521
testing	-12.1522
family	-12.1524
bzr	-12.1524
▁Did	-12.1527
deg	-12.1527
IVE	-12.1529
am	-12.153
▁qty	-12.1531
▁gender	-12.1533
▁150	-12.1533
▁crash	-12.1536
subnet	-12.1541
3-	-12.1543
bios	-12.1545
▁plane	-12.1552
▁'::'	-12.1554
▁three	-12.1555
▁Estimate	-12.1557
▁contrast	-12.1558
parallel	-12.1559
▁artifacts	-12.1562
▁abc	-12.1564
▁Tk	-12.1565
backends	-12.1565
▁tutorial	-12.1565
▁userid	-12.1566
'%(	-12.1568
▁Sid	-12.1571
hdr	-12.1577
▁mails	-12.1586
▁suggestions	-12.1586
NOT	-12.1587
scan	-12.1588
▁scalars	-12.1599
bsolute	-12.1601
UP	-12.1603
▁REQ	-12.161
▁songs	-12.1611
▁Intersect	-12.1618
▁Future	-12.1619
▁Polynomial	-12.1619
▁World	-12.1619
▁KEYWORD	-12.1622
▁PARAM	-12.1622
▁stale	-12.1626
▁Alt	-12.163
actions	-12.1632
▁submitted	-12.1633
▁ellipse	-12.1635
▁mandatory	-12.1636
roles	-12.1637
some	-12.1639
▁rbm	-12.1642
readlines	-12.1643
▁observed	-12.1647
▁PATHS	-12.1648
▁Reading	-12.1655
earest	-12.1656
▁0.15	-12.1659
odoo	-12.166
els	-12.166
▁optimized	-12.1661
▁%%	-12.1664
▁alphas	-12.1665
STRING	-12.1665
▁issuer	-12.1668
▁specifier	-12.1668
▁totals	-12.1671
▁transcripts	-12.1672
▁goal	-12.1673
▁teardown	-12.1674
▁assertion	-12.1676
▁outf	-12.1677
▁wc	-12.168
destination	-12.1681
▁surfaces	-12.1681
▁networkx	-12.1685
▁'\\"	-12.1697
▁nlines	-12.1705
botocore	-12.1706
▁computed	-12.1707
bms	-12.1708
▁adapt	-12.1713
urlfetch	-12.1722
▁grep	-12.1724
▁needle	-12.1728
▁far	-12.1733
rst	-12.1734
▁wms	-12.1735
▁mX	-12.1737
▁Gateway	-12.1738
▁verifier	-12.1738
lambda	-12.1739
▁Transfer	-12.1739
▁Day	-12.1739
▁Packet	-12.174
▁Twist	-12.174
vlan	-12.1741
SHARED	-12.1742
▁greenlet	-12.1742
▁Lab	-12.1742
▁unpickle	-12.1745
▁sqr	-12.1746
unmatched	-12.1747
▁ownership	-12.1748
▁referer	-12.1748
▁navigation	-12.175
▁paren	-12.175
▁subclasses	-12.1751
▁Matcher	-12.1752
TCP	-12.1753
▁WITH	-12.1754
begin	-12.1757
medium	-12.1758
▁26	-12.176
▁pixels	-12.176
▁higher	-12.1761
▁({0})	-12.1762
▁{3}	-12.1763
▁365	-12.1769
▁jboss	-12.1769
gl	-12.177
▁51	-12.1782
▁ksize	-12.1782
▁apath	-12.1782
▁Dumpe	-12.1783
▁SOL	-12.1783
currency	-12.1788
▁lemma	-12.1788
▁cliques	-12.1788
▁libvirt	-12.179
▁surfs	-12.1791
▁'<%	-12.1795
▁deletion	-12.1795
bz	-12.1799
]+'	-12.18
▁dataframe	-12.1802
▁recording	-12.1804
▁trunk	-12.1806
nova	-12.1809
▁skill	-12.1811
svn	-12.1811
▁CAN	-12.1815
▁MB	-12.1817
lowpass	-12.1822
cov	-12.1822
gm	-12.1825
hat	-12.1826
▁amplitude	-12.1828
▁vn	-12.183
pe	-12.1835
▁Ver	-12.1837
▁Observe	-12.1845
ds	-12.1849
messaging	-12.1859
▁Manifest	-12.1859
▁Iron	-12.1859
▁consider	-12.1859
▁declaration	-12.186
▁Listener	-12.186
▁subtract	-12.1861
▁together	-12.1861
amqp	-12.1862
reply	-12.1863
▁seeds	-12.1869
▁Plane	-12.1872
▁stretch	-12.1873
▁shorten	-12.1873
▁sandbox	-12.1875
9\	-12.1876
boolean	-12.1879
whitespace	-12.1881
▁splitter	-12.1881
▁dset	-12.1884
▁DOC	-12.189
▁cor	-12.1894
▁osx	-12.1894
▁cinder	-12.1898
▁controllers	-12.1899
icrosoft	-12.1902
(%(	-12.1907
▁Uniqu	-12.1914
▁'{{	-12.1919
▁ga	-12.192
▁Chunk	-12.1922
▁classpath	-12.1926
▁mv	-12.1932
▁hdf	-12.1935
▁Reset	-12.1938
non	-12.1939
▁qr	-12.194
▁micro	-12.1947
▁5000	-12.1947
▁preds	-12.1949
▁submod	-12.195
▁leave	-12.1954
▁ij	-12.1954
▁Vs	-12.196
▁dag	-12.1961
▁reads	-12.1962
▁sim	-12.1967
▁cas	-12.1973
▁mav	-12.1976
▁costs	-12.198
cron	-12.198
▁Algorithm	-12.1981
▁Double	-12.1981
▁conjugate	-12.1981
▁earned	-12.1981
▁rms	-12.1982
▁factorial	-12.1983
▁focus	-12.1983
▁netrc	-12.1985
▁observation	-12.1985
▁albums	-12.199
▁through	-12.1991
80'	-12.1992
▁covar	-12.1993
ful	-12.1994
▁53	-12.1994
▁INDENT	-12.1994
▁indexing	-12.1995
▁aes	-12.1995
wise	-12.1995
▁art	-12.1996
▁consistency	-12.1997
▁vmdk	-12.1997
▁Bus	-12.1998
▁normals	-12.1999
strip	-12.2
lineno	-12.2001
▁journal	-12.2001
qemu	-12.2002
jinja	-12.2003
▁devs	-12.2004
▁central	-12.2005
jar	-12.2006
▁lun	-12.2007
▁rid	-12.2007
▁hextets	-12.2007
▁LDAP	-12.2009
amount	-12.2009
▁latitude	-12.201
▁({1})	-12.2013
'\\'	-12.2014
oid	-12.2016
replication	-12.202
▁96	-12.2026
▁hlist	-12.2029
▁Alphabet	-12.2029
▁board	-12.2029
▁icmp	-12.2031
▁ost	-12.2032
▁SHORT	-12.2034
▁384	-12.2035
▁ro	-12.2043
▁cw	-12.2046
removing	-12.2046
▁perf	-12.2048
ICRS	-12.2048
▁AWS	-12.2049
chunk	-12.2053
cell	-12.2053
▁soln	-12.2053
hallow	-12.2054
▁254	-12.2057
▁provides	-12.2057
▁correlation	-12.2058
requires	-12.206
▁hv	-12.2062
asctime	-12.2065
ment	-12.2067
inary	-12.2068
SAME	-12.2068
▁{1}\	-12.207
ish	-12.2074
▁jenkins	-12.2075
▁UI	-12.208
dashboard	-12.2082
▁att	-12.2083
▁incident	-12.2086
▁typecode	-12.2087
pickle	-12.2089
manage	-12.209
|%	-12.2092
▁deprecate	-12.2093
▁moved	-12.2094
ear	-12.21
▁xor	-12.2104
nqubits	-12.2104
▁communities	-12.2105
▁Radian	-12.2105
▁External	-12.2105
▁oper	-12.2105
▁COLS	-12.2105
▁handshake	-12.2106
▁Inside	-12.2106
phase	-12.2107
▁families	-12.2107
▁INSTALL	-12.2109
▁tower	-12.2109
▁relevant	-12.211
▁Portion	-12.211
small	-12.2111
▁probably	-12.2111
sockopt	-12.2113
▁had	-12.2113
TREE	-12.2114
cap	-12.2115
▁rack	-12.2117
▁Raise	-12.2117
▁lx	-12.2117
▁camera	-12.2119
▁quad	-12.212
▁psi	-12.212
▁ansi	-12.2121
vg	-12.2122
▁Addon	-12.2123
▁discussions	-12.2124
ram	-12.2125
▁deco	-12.2127
▁owned	-12.2127
▁magenta	-12.2127
▁saml	-12.213
▁Sine	-12.2132
ini	-12.2136
▁failing	-12.214
▁exitcode	-12.2143
ac	-12.2149
fit	-12.215
▁lags	-12.215
▁gevent	-12.2151
alt	-12.2152
▁hardware	-12.2154
▁mr	-12.2155
ernel	-12.2157
▁maxval	-12.2161
▁bz	-12.2166
chr	-12.2168
major	-12.2168
▁nvars	-12.2175
traceback	-12.2181
▁getsize	-12.2186
▁wb	-12.2194
▁temporal	-12.2194
▁reservation	-12.2195
▁plotly	-12.2196
▁Ad	-12.2199
▁angles	-12.2211
niu	-12.2212
={1}	-12.2214
▁imgs	-12.2217
▁Addr	-12.2218
▁archiv	-12.222
SET	-12.222
▁reserve	-12.2223
▁adv	-12.2225
▁Conflict	-12.2229
pagerduty	-12.2229
▁WH	-12.2229
▁Allocation	-12.2229
▁65536	-12.2229
DOTALL	-12.2231
▁Hist	-12.2232
ZZ	-12.2232
CLSID	-12.2235
▁'...	-12.2235
▁EX	-12.2236
123	-12.2237
▁givens	-12.2238
▁Pooler	-12.224
accept	-12.2244
▁OPTS	-12.2245
▁BUFFER	-12.2246
▁LABEL	-12.2248
▁CMD	-12.2251
REQUEST	-12.2252
datasets	-12.2253
internal	-12.2254
▁ZIP	-12.2254
▁archs	-12.2256
▁referenced	-12.2259
▁memoized	-12.2261
▁mounts	-12.2262
▁STACK	-12.2264
▁fuzzy	-12.2267
▁hy	-12.2267
stuff	-12.227
▁fetcher	-12.2274
▁SP	-12.2275
▁stroke	-12.2276
▁usec	-12.2277
define	-12.2284
▁argc	-12.2284
▁deprecation	-12.229
imread	-12.2292
ijk	-12.2294
ad	-12.2294
▁Comput	-12.2297
▁behavior	-12.2298
period	-12.2299
▁sdist	-12.2302
sm	-12.2304
▁extractor	-12.2305
-12	-12.2311
parameter	-12.2313
▁modifiers	-12.2313
▁Logs	-12.2322
nteractive	-12.2328
▁hdfs	-12.2328
enny	-12.2328
▁nsprefix	-12.2334
17	-12.2337
▁Ret	-12.2339
▁Flat	-12.2343
}/{	-12.2343
orry	-12.2344
▁segs	-12.2346
zfs	-12.2352
▁Knowledge	-12.2356
▁inertia	-12.2356
▁Subscription	-12.2356
▁Backup	-12.2356
rp	-12.2357
▁browse	-12.2358
▁protect	-12.2358
▁EXTENSION	-12.236
▁autocommit	-12.236
}}'	-12.2363
▁maj	-12.2366
▁bom	-12.237
▁TEMP	-12.2371
▁tamper	-12.2372
@%	-12.2373
▁quotas	-12.2374
▁SPACE	-12.2377
▁eigen	-12.2377
▁accepts	-12.2379
openid	-12.238
ij	-12.2381
▁dumper	-12.2381
▁xdg	-12.2381
verbosity	-12.2383
▁breadcrumbs	-12.2383
▁loopback	-12.2386
▁alg	-12.2393
inputspec	-12.2393
instances	-12.2398
DG	-12.2402
▁Append	-12.2402
▁NT	-12.2403
▁runlevel	-12.2405
▁mouse	-12.2407
▁ndx	-12.2408
ng	-12.2408
8\	-12.241
512	-12.241
▁||	-12.241
▁IGNORE	-12.2412
1/	-12.2414
▁trusted	-12.2416
▁retain	-12.242
classify	-12.2421
▁bm	-12.2429
▁vcpus	-12.243
▁octets	-12.2434
▁facet	-12.2435
▁hostnames	-12.2436
▁outs	-12.244
coil	-12.2443
▁onset	-12.2443
▁1.7	-12.2444
questions	-12.2447
sig	-12.2456
▁flocker	-12.2459
▁expm	-12.246
ampaign	-12.247
▁MATCH	-12.2474
complex	-12.2477
▁natural	-12.2477
scalar	-12.2477
▁gather	-12.2484
▁Validator	-12.2484
▁intercircle	-12.2485
▁quat	-12.2486
lotly	-12.2486
▁Large	-12.2487
▁iht	-12.2487
▁proportion	-12.249
diameter	-12.2491
▁EDIT	-12.2492
▁WIKI	-12.2494
▁RPC	-12.2497
▁Stat	-12.2498
▁pydoc	-12.2499
▁INTEGER	-12.2502
▁accessed	-12.2502
▁HANDLE	-12.2504
▁Checks	-12.2506
▁flows	-12.2509
▁Watch	-12.251
▁codons	-12.2512
wanted	-12.2513
▁ERR	-12.2514
▁certname	-12.2515
▁Mail	-12.2516
roperties	-12.2518
▁studio	-12.2521
▁cores	-12.2524
▁PROCESS	-12.2532
swift	-12.2535
▁libs	-12.2537
▁pres	-12.2538
▁Round	-12.2542
bundle	-12.2547
▁LANG	-12.2553
▁typing	-12.2558
]:	-12.2575
xem	-12.2577
?)'	-12.2577
▁unsafe	-12.2579
▁plug	-12.2582
%%	-12.2599
▁stores	-12.2606
byteorder	-12.2606
▁High	-12.2608
▁sun	-12.2609
▁brain	-12.261
▁timeline	-12.2611
ANGO	-12.2614
▁Implementation	-12.2614
▁interfilediff	-12.2614
▁REGISTR	-12.2614
▁Forum	-12.2615
▁Repo	-12.2615
fmt	-12.2617
▁might	-12.2618
▁CTF	-12.2619
mul	-12.2619
▁blas	-12.2619
ios	-12.262
▁UPLOAD	-12.2621
▁upcast	-12.2622
vnd	-12.2622
▁effective	-12.2622
▁increase	-12.2625
▁learn	-12.2625
-15	-12.2626
▁SUFFIX	-12.2628
▁ier	-12.2629
destroy	-12.2633
broadcast	-12.2637
▁TV	-12.2638
quality	-12.2641
ability	-12.2642
numeric	-12.2642
manifest	-12.2644
▁SDK	-12.2646
▁CN	-12.2646
▁ephemeral	-12.2647
lat	-12.2654
▁blockdevice	-12.2655
▁keyspace	-12.2657
▁allocated	-12.2657
cidr	-12.2658
▁ea	-12.2658
▁mn	-12.2659
))\	-12.2663
parquet	-12.2667
▁DESCRIPTION	-12.2668
escape	-12.2671
▁cff	-12.2673
highpass	-12.2673
▁udp	-12.2675
cs	-12.2676
▁things	-12.2677
▁'<<	-12.2677
▁Photo	-12.2678
edx	-12.2684
▁paragraph	-12.269
cartesian	-12.269
▁didn	-12.2691
dvr	-12.2694
organization	-12.2695
▁textbook	-12.2695
▁250	-12.2701
bbox	-12.2703
▁scal	-12.2705
▁fdesc	-12.271
▁Mo	-12.2711
affinity	-12.2714
▁stages	-12.2716
▁Cm	-12.2718
▁newfunc	-12.2724
nonymous	-12.2727
xsi	-12.2727
▁sku	-12.2731
▁Train	-12.2739
repr	-12.2739
▁mixin	-12.2739
▁Discover	-12.2745
▁Team	-12.2746
▁Undefined	-12.2746
▁bezier	-12.2747
▁precedence	-12.2748
▁distorted	-12.2748
▁photos	-12.2748
▁adaptive	-12.2751
▁calculator	-12.2751
▁revert	-12.2753
▁bootinfo	-12.2753
▁gz	-12.2753
▁Previous	-12.2754
▁intensity	-12.2755
▁psychopy	-12.2755
▁whitener	-12.2756
▁signum	-12.2757
▁revoke	-12.2757
▁people	-12.2757
▁iterfield	-12.276
plural	-12.276
▁RGB	-12.2762
▁mpf	-12.2764
▁fatal	-12.2764
mock	-12.2768
MRI	-12.2769
▁prefer	-12.277
▁clipboard	-12.2771
▁interact	-12.2774
reverse	-12.2775
copytree	-12.2775
dimensional	-12.2776
yellow	-12.2776
▁cyg	-12.2779
rpm	-12.278
▁ecc	-12.2782
▁pkl	-12.2783
▁Xen	-12.2783
"%	-12.2786
▁hmag	-12.2787
▁downloader	-12.2791
▁Commit	-12.2796
vec	-12.2798
▁passes	-12.2804
▁randomize	-12.2804
▁prot	-12.281
▁sgd	-12.2814
matches	-12.2816
▁bf	-12.2816
VS	-12.2818
})	-12.2827
poly	-12.2828
▁WRITE	-12.283
▁lxml	-12.2835
rd	-12.284
▁vlanid	-12.2842
▁sysv	-12.2847
FLAGS	-12.2852
revalidate	-12.2865
▁aggregation	-12.2866
▁disassociate	-12.2867
▁issub	-12.2872
ductor	-12.2873
▁emb	-12.2873
▁Route	-12.2874
▁153	-12.2876
▁renew	-12.2877
▁Fragment	-12.2879
▁Categorical	-12.2879
▁laplacian	-12.2879
▁FACTORY	-12.2879
▁secrets	-12.2881
▁DELIMITER	-12.2881
▁TOPIC	-12.2881
▁probability	-12.2881
▁{},	-12.2882
▁Bear	-12.2883
unify	-12.2884
inite	-12.2886
▁transactions	-12.2887
cond	-12.2887
▁Follow	-12.2889
▁BEM	-12.2889
most	-12.2891
▁numbering	-12.2892
▁aug	-12.2893
simp	-12.2894
tabs	-12.2895
escribe	-12.2895
▁temperature	-12.2898
▁102	-12.2899
sdm	-12.2901
dll	-12.2903
▁assoc	-12.2905
▁prefixed	-12.2906
▁aligned	-12.2907
822	-12.291
previous	-12.2911
▁ratelimit	-12.2913
history	-12.2913
▁DIRS	-12.2914
fix	-12.2917
▁winrepo	-12.2922
▁precompute	-12.2922
▁sls	-12.2926
▁rejected	-12.2932
▁rounded	-12.2933
▁EV	-12.2933
▁marginal	-12.2935
▁ht	-12.2947
▁warp	-12.2947
▁para	-12.2952
social	-12.2952
modl	-12.2952
▁DEV	-12.2954
▁cn	-12.2954
ba	-12.2959
▁ogr	-12.2968
▁videos	-12.2972
▁commented	-12.2978
5\	-12.298
▁Lat	-12.2981
cr	-12.2983
▁rds	-12.2984
04	-12.2984
▁'+	-12.2986
▁Vars	-12.2988
cols	-12.2994
▁Popu	-12.3004
▁Atom	-12.3005
▁obtain	-12.3009
FF	-12.301
incept	-12.3013
▁Lang	-12.3014
▁Put	-12.3015
rng	-12.3016
▁INTERVAL	-12.3016
▁Versions	-12.3017
▁differ	-12.3018
▁operand	-12.302
▁Live	-12.3021
quot	-12.3021
▁0.02	-12.3022
push	-12.3024
0435	-12.3026
▁subj	-12.3026
▁maxit	-12.3027
▁identified	-12.3028
infrastructure	-12.303
cut	-12.3031
▁easy	-12.3033
usable	-12.3035
▁quadratic	-12.3035
▁darwin	-12.3035
clone	-12.3037
▁crt	-12.3038
ra	-12.3041
week	-12.3044
▁CPU	-12.3045
▁they	-12.3045
▁vers	-12.3046
audio	-12.3047
pytest	-12.3047
amplitude	-12.3049
▁subscribers	-12.3049
▁DATETIME	-12.3051
generic	-12.3052
▁vary	-12.3052
ALL	-12.3054
▁xmpp	-12.3061
csc	-12.3061
▁lxc	-12.3062
▁larger	-12.3071
▁pipes	-12.3073
▁CHAR	-12.3074
sym	-12.3079
▁unpacked	-12.3084
▁ENTRY	-12.3084
▁ONLY	-12.3084
nb	-12.309
▁getfile	-12.309
▁ali	-12.3093
▁widths	-12.3093
▁observations	-12.3095
▁partner	-12.31
▁nz	-12.3103
▁overlay	-12.3105
ivision	-12.3109
weights	-12.311
▁coefficients	-12.3113
question	-12.3119
▁quick	-12.3123
▁ace	-12.3127
minions	-12.313
▁instantiate	-12.3136
dec	-12.3137
▁bq	-12.3141
▁envs	-12.3141
▁stor	-12.3152
▁dollar	-12.3153
▁Hex	-12.3154
▁Creator	-12.3154
categories	-12.3154
▁Cause	-12.3155
▁bands	-12.3156
▁Cost	-12.3156
▁billed	-12.3156
▁enqueue	-12.3157
sided	-12.3157
▁escapes	-12.3157
▁clipped	-12.3158
▁RANGE	-12.3158
▁nibabel	-12.316
ECTS	-12.316
▁meaning	-12.3162
▁four	-12.3164
▁pricing	-12.3166
▁Averag	-12.3168
▁nbar	-12.3172
{}	-12.3173
▁cret	-12.3175
▁Structure	-12.3176
▁still	-12.318
attrs	-12.318
▁severity	-12.3181
xf	-12.3181
INI	-12.3182
DEBUG	-12.3183
directed	-12.3183
ython	-12.3183
dT	-12.3186
unpack	-12.3187
▁pools	-12.3188
▁collapsed	-12.3192
▁Origin	-12.3193
▁disposition	-12.3194
▁decomp	-12.3195
bus	-12.3197
coverage	-12.3197
▁Apply	-12.3198
▁recognized	-12.3201
▁classmethod	-12.3201
ummary	-12.3202
oftmax	-12.3203
▁courseware	-12.3208
▁fieldset	-12.3209
▁permanence	-12.3214
rad	-12.3225
localized	-12.3226
serial	-12.3231
▁likelihood	-12.3233
emails	-12.3236
ktemp	-12.3236
▁online	-12.3239
▁followers	-12.324
%%'	-12.3246
▁renamed	-12.3251
glob	-12.3255
price	-12.3255
▁?,	-12.3256
snippet	-12.3257
dl	-12.3258
-16	-12.3259
▁descendants	-12.326
▁developer	-12.3261
CS	-12.3263
▁managers	-12.3264
llegal	-12.327
▁Owner	-12.327
mark	-12.3277
.*'	-12.3284
▁splt	-12.3284
sizing	-12.3289
▁COIL	-12.329
▁Attachment	-12.329
▁Price	-12.329
▁Cent	-12.3291
▁fkey	-12.3292
▁listed	-12.3292
▁pelican	-12.3293
▁pymongo	-12.3295
▁bgcolor	-12.3296
▁concurrency	-12.3296
▁dets	-12.3298
▁qd	-12.3298
▁satisfied	-12.33
▁measurement	-12.3303
▁jitter	-12.3303
▁CUSTOM	-12.3305
▁procedure	-12.3305
▁nbins	-12.3308
▁rendering	-12.331
▁urlquote	-12.331
▁trap	-12.3315
ach	-12.3315
▁readme	-12.3317
▁downloadable	-12.3317
closed	-12.3321
▁attempting	-12.3324
▁uploader	-12.3326
▁iscomplex	-12.3328
temporal	-12.3329
▁SCOPE	-12.3333
verflow	-12.3334
modify	-12.3335
▁sky	-12.3337
▁dupe	-12.3338
gmail	-12.3338
factor	-12.3339
▁AE	-12.3339
▁Assign	-12.3339
▁VPC	-12.334
flag	-12.3354
▁lease	-12.3355
▁ami	-12.3356
▁setitem	-12.3358
▁tfreq	-12.3359
ified	-12.3362
▁cats	-12.3363
▁ul	-12.3364
▁datastr	-12.3365
▁'?	-12.3369
seg	-12.3375
▁docname	-12.3377
upstart	-12.3378
▁REG	-12.3379
solexa	-12.3388
xyz	-12.3389
igest	-12.339
rw	-12.3392
decimal	-12.3393
▁Directions	-12.3397
photo	-12.3397
▁hid	-12.3398
▁29	-12.3398
pending	-12.3399
▁Pr	-12.34
systemencoding	-12.34
▁prereqs	-12.3401
button	-12.3402
▁Place	-12.3403
prev	-12.3406
sorted	-12.3421
▁Keyword	-12.3423
▁Currency	-12.343
▁Relationship	-12.343
▁Recursively	-12.3431
▁prune	-12.3431
▁cookiejar	-12.3432
▁unwrap	-12.3433
▁chance	-12.3433
rmdir	-12.3433
▁rag	-12.3434
momentum	-12.3435
▁BIG	-12.3437
▁showwarning	-12.3438
▁IPV	-12.3439
ratio	-12.3443
LD	-12.3443
▁HOSTS	-12.3444
▁Wrap	-12.3445
dd	-12.3447
▁thin	-12.3447
▁specgram	-12.3449
▁beginning	-12.3449
▁Param	-12.3455
▁explain	-12.3459
▁walker	-12.3459
▁dcos	-12.3459
▁DATABASE	-12.3459
stra	-12.3462
applications	-12.3463
▁Authorize	-12.3463
▁ramdisk	-12.3464
▁Dump	-12.3466
▁configurator	-12.3466
▁lettuce	-12.3468
▁smaller	-12.3471
▁pki	-12.3472
prompt	-12.3472
identities	-12.3473
rev	-12.3473
▁third	-12.3475
feed	-12.3476
cli	-12.3478
▁Termina	-12.3478
▁composer	-12.348
▁subkey	-12.3484
▁monitors	-12.3487
scheme	-12.3489
testsuite	-12.3491
da	-12.3494
▁bson	-12.3495
▁bust	-12.3504
▁substitution	-12.3505
djangoapps	-12.3508
▁underscore	-12.351
▁radian	-12.3512
lg	-12.3519
▁hostport	-12.3521
▁nf	-12.3522
▁Artifact	-12.3529
NULL	-12.3532
▁hs	-12.3535
payload	-12.3537
profiles	-12.3538
nchan	-12.3543
archive	-12.3544
machine	-12.3546
▁Times	-12.3553
▁gradients	-12.3554
▁Sun	-12.3559
▁occurrence	-12.3561
▁VER	-12.3562
▁Pipe	-12.3565
▁%02	-12.3566
▁BE	-12.3568
▁vc	-12.357
▁phot	-12.357
sel	-12.357
tf	-12.3573
▁gi	-12.3573
▁Should	-12.3573
▁Student	-12.3573
▁Deprecate	-12.3573
found	-12.3573
▁forumsread	-12.3573
profitbricks	-12.3573
▁Indicator	-12.3574
▁Scanner	-12.3574
▁refname	-12.3574
struct	-12.3574
▁Agg	-12.3575
SIGTERM	-12.3575
▁accum	-12.3575
▁cudnn	-12.3576
▁Browser	-12.3576
▁artifactory	-12.3579
▁MAGIC	-12.3579
▁night	-12.358
▁nodetype	-12.3582
▁<%	-12.3583
▁multinomial	-12.3583
each	-12.3583
arguments	-12.3584
utc	-12.3585
▁Define	-12.3585
▁ims	-12.3586
▁decoding	-12.3587
unique	-12.3587
▁csds	-12.3587
▁sents	-12.3594
▁errcheck	-12.3595
386'	-12.3595
▁RAR	-12.3596
logo	-12.3596
▁Links	-12.3599
▁divider	-12.3603
▁deb	-12.3605
▁userdata	-12.3611
numba	-12.3616
▁Compar	-12.3617
▁tanh	-12.3619
▁deleting	-12.362
▁annotated	-12.3623
inp	-12.3627
creating	-12.3631
▁thr	-12.3632
helpers	-12.3635
itable	-12.3637
▁nrow	-12.3638
▁Dur	-12.364
inherited	-12.364
▁Authenticate	-12.3645
includes	-12.3646
▁pdef	-12.365
▁OFF	-12.3652
logs	-12.3655
▁deserializer	-12.3658
apt	-12.366
▁unset	-12.3661
preview	-12.3662
▁bigip	-12.3663
NN	-12.3665
▁bk	-12.3666
▁bill	-12.3666
fwd	-12.3673
▁Repl	-12.3682
▁Util	-12.3684
gpu	-12.3685
▁med	-12.3688
044	-12.3688
▁'0.0.0.0	-12.3694
stopped	-12.3698
ACTIVITY	-12.3702
addon	-12.3706
▁edgecolor	-12.3709
std	-12.3712
▁posting	-12.3715
sz	-12.3717
▁apt	-12.3717
▁REFLECT	-12.3718
▁Constraint	-12.3718
▁Indent	-12.3718
▁Mesh	-12.3718
▁MLP	-12.3719
▁contingency	-12.3719
▁affected	-12.372
▁MACHINE	-12.3723
▁adgroup	-12.3724
▁CCX	-12.3725
▁Follower	-12.3725
▁launcher	-12.3727
▁stochastic	-12.3727
▁ambiguous	-12.373
▁tl	-12.3731
▁triu	-12.3732
▁appyaml	-12.3734
▁SOCKET	-12.3737
▁concurrent	-12.3737
▁dfile	-12.3739
na	-12.3743
****************	-12.3748
▁android	-12.375
rank	-12.3751
submit	-12.3759
dumb	-12.3761
▁Overlap	-12.3761
openstack	-12.3763
▁mission	-12.3763
▁lti	-12.3763
▁Push	-12.3764
VALID	-12.3764
mkdir	-12.3764
environment	-12.3764
similarities	-12.3765
deprecated	-12.3765
RC	-12.3765
stdin	-12.3767
mne	-12.3769
▁masters	-12.3772
▁normalizer	-12.3773
anagement	-12.3774
▁mtu	-12.3778
▁100000	-12.3779
▁sequential	-12.3782
unified	-12.3784
▁hba	-12.3791
▁tiles	-12.3793
▁schemes	-12.3794
▁pinv	-12.3798
patial	-12.38
▁evaluation	-12.38
▁prereq	-12.3808
▁bcast	-12.3811
commands	-12.3812
allowed	-12.3815
notes	-12.3817
▁sids	-12.3818
mgz	-12.3822
▁TMP	-12.3823
nference	-12.3823
▁tld	-12.3824
▁VIEW	-12.3825
▁tableau	-12.3834
▁Conf	-12.3837
worker	-12.3841
stropy	-12.3858
▁extents	-12.3861
▁rw	-12.3861
▁ACCOUNT	-12.3863
▁Guest	-12.3865
aggressive	-12.3865
▁Delay	-12.3866
▁blue	-12.3866
dockerng	-12.3867
▁Movie	-12.3868
▁pyo	-12.3868
extensions	-12.3869
▁reached	-12.387
▁CHANNEL	-12.3871
▁'---	-12.3875
tv	-12.3875
▁PARAMS	-12.3877
▁subreddit	-12.3877
▁Draw	-12.3878
rate	-12.3878
▁cpath	-12.3879
▁GREEN	-12.3881
▁goto	-12.3882
▁rg	-12.3886
▁fm	-12.3891
▁recommended	-12.3891
▁tips	-12.3893
masquerade	-12.3896
ost	-12.3902
▁advanced	-12.3905
latex	-12.3907
opportunity	-12.3908
tls	-12.3909
props	-12.3909
levelname	-12.391
pypi	-12.3913
frozen	-12.3913
NONE	-12.3913
OPTIONS	-12.3913
javascript	-12.3914
dhcp	-12.3915
stringify	-12.3915
cur	-12.3916
4.	-12.392
▁suggest	-12.392
requirements	-12.392
▁SAMPLE	-12.3928
▁NL	-12.3936
brightness	-12.3939
▁reflect	-12.3939
▁IR	-12.3947
▁Pol	-12.3947
▁AD	-12.3948
▁detector	-12.395
▁GIT	-12.395
▁friend	-12.3953
▁Daemon	-12.3956
ubtensor	-12.3957
▁timezones	-12.3959
▁cax	-12.3962
bg	-12.3965
▁repeats	-12.3968
▁checkpoints	-12.3968
servers	-12.3968
captured	-12.3969
▁kl	-12.3969
▁inps	-12.3977
require	-12.3982
▁archived	-12.3983
▁reported	-12.3986
▁jids	-12.3986
▁rater	-12.3987
▁assignments	-12.3989
providers	-12.399
pages	-12.3996
▁fns	-12.4001
ioctl	-12.4007
▁nh	-12.4007
▁ta	-12.4009
▁Scene	-12.4015
▁promo	-12.4017
election	-12.4017
▁directly	-12.4019
▁lift	-12.402
▁Original	-12.402
▁PERMISSION	-12.402
▁METADATA	-12.4022
▁fresh	-12.4024
▁0.95	-12.4024
▁approval	-12.4025
▁permit	-12.4025
▁emp	-12.4028
▁drafts	-12.4031
▁entered	-12.4031
▁WCS	-12.4031
▁ndi	-12.4034
▁imagepath	-12.4035
▁pvalue	-12.4036
▁envvar	-12.4038
▁Be	-12.4039
▁optimal	-12.4039
▁LONG	-12.404
▁'{0}:{1}	-12.404
added	-12.4042
▁Infinit	-12.4044
▁skew	-12.4044
activate	-12.4046
▁STOP	-12.4046
▁mix	-12.4049
▁daily	-12.405
▁urlpath	-12.405
▁Scal	-12.4051
▁360	-12.4059
uninstall	-12.4061
figure	-12.4064
/>\	-12.4064
initial	-12.4065
should	-12.4065
yml	-12.4067
precision	-12.4067
endif	-12.4067
hours	-12.4072
▁skey	-12.4072
▁EVP	-12.4073
▁Decoder	-12.4074
pki	-12.4075
▁appscale	-12.4075
▁card	-12.4076
▁doctypes	-12.4079
▁configurations	-12.408
frac	-12.4089
▁nzf	-12.4091
▁'2.0'	-12.4092
▁rnd	-12.4095
84	-12.4096
▁TP	-12.4097
▁combination	-12.4101
▁CDL	-12.4108
▁black	-12.4124
▁ifft	-12.4129
SP	-12.4134
hw	-12.4134
▁SZ	-12.4138
validate	-12.4139
▁ny	-12.4147
secure	-12.415
▁sending	-12.4152
▁attribs	-12.4153
kit	-12.4155
seen	-12.4155
▁synchronize	-12.4155
▁WEB	-12.416
LIST	-12.4163
▁Than	-12.4164
▁Shuffle	-12.4166
▁Statistic	-12.4166
▁equate	-12.4167
▁introspection	-12.4168
▁matmul	-12.4169
▁nameserver	-12.4172
▁utility	-12.4172
▁passthrough	-12.4175
▁inches	-12.4175
▁wkt	-12.4176
[\\	-12.4177
▁coordinator	-12.4179
▁eager	-12.418
▁FLAG	-12.4183
▁Common	-12.4185
edge	-12.4188
▁Learn	-12.4189
▁specialize	-12.4191
layout	-12.4193
▁naming	-12.4193
▁junk	-12.4193
')\	-12.4194
▁revoked	-12.4195
virt	-12.4198
▁bisect	-12.4199
generate	-12.4199
attach	-12.4204
▁Mixin	-12.4205
23	-12.4206
▁hd	-12.4207
▁svm	-12.4208
▁unsigned	-12.4212
▁jsonutils	-12.4214
AVE	-12.4214
related	-12.4215
subset	-12.4217
▁rowcount	-12.4218
co	-12.4219
▁KB	-12.4222
ppc	-12.4224
setting	-12.4225
▁Sinc	-12.4225
▁fan	-12.4229
tt	-12.4232
work	-12.4233
▁contributions	-12.4233
▁pix	-12.4235
\\]	-12.4238
▁planes	-12.4265
rtn	-12.4266
▁flowgrams	-12.4268
▁'-----	-12.4268
signature	-12.4278
minor	-12.4279
PEG	-12.4282
▁gray	-12.4285
OB	-12.4286
▁percentiles	-12.4286
lockwise	-12.4286
addons	-12.4292
▁affiliation	-12.4301
▁captions	-12.4307
▁players	-12.4308
▁ICA	-12.431
▁engines	-12.4311
▁vpcs	-12.4311
▁pdict	-12.4314
▁240	-12.4316
▁Flavor	-12.432
▁Increment	-12.432
▁Season	-12.432
▁Secure	-12.432
▁Prediction	-12.4321
▁Expand	-12.4322
▁paramiko	-12.4323
▁sensitivity	-12.4324
▁Outset	-12.4325
▁fitted	-12.4326
▁eligible	-12.4326
▁NEXT	-12.4327
▁Nov	-12.4327
▁mayavi	-12.4329
tml	-12.433
▁nets	-12.4333
▁DISK	-12.4333
▁qsl	-12.4336
▁pygments	-12.4338
▁thresholds	-12.4341
:6\	-12.4342
4\	-12.4344
▁Rar	-12.4345
▁liability	-12.4346
▁dnsname	-12.4348
▁contained	-12.4348
▁mapreduce	-12.4349
▁wave	-12.4355
▁sass	-12.4355
wrapper	-12.4355
try	-12.4357
▁tagname	-12.4359
▁VERSIONS	-12.436
recision	-12.4361
interval	-12.4361
▁mor	-12.4362
▁cflags	-12.4369
▁QT	-12.4369
reflect	-12.4371
city	-12.4373
VDI	-12.4374
blob	-12.4375
orig	-12.4375
products	-12.4375
▁aton	-12.4375
which	-12.4376
▁Der	-12.4377
imdb	-12.4379
▁CS	-12.4383
ansible	-12.4384
▁backrefs	-12.4386
volumes	-12.4386
▁connecting	-12.4386
strong	-12.4388
▁adding	-12.4389
▁writerow	-12.4395
gs	-12.44
▁itc	-12.4404
PENDING	-12.4405
▁terminator	-12.4405
▁URLS	-12.4406
▁evt	-12.4408
▁computation	-12.441
').	-12.4411
▁msgid	-12.4412
▁ak	-12.4413
▁filled	-12.4416
▁rsrc	-12.4416
▁mechanism	-12.442
▁subcommand	-12.4422
=?	-12.4423
inline	-12.4424
▁orgs	-12.443
east	-12.4431
cores	-12.4433
requests	-12.4434
▁rrs	-12.4434
▁typeclass	-12.4436
▁usernames	-12.4437
ap	-12.4438
▁excess	-12.4438
DATA	-12.4439
leanup	-12.4442
copyright	-12.4447
▁prototype	-12.4449
▁evalue	-12.4451
ind	-12.4451
game	-12.4453
OUT	-12.446
▁pyname	-12.446
▁teams	-12.4461
partial	-12.4462
pull	-12.4465
58	-12.4466
visible	-12.4467
let	-12.4468
▁Tex	-12.447
▁Gram	-12.4474
▁gethostby	-12.4476
▁OPERATOR	-12.4476
▁Correct	-12.4476
▁Keep	-12.4476
▁Cascade	-12.4477
SAML	-12.4477
▁filepaths	-12.4477
▁moderator	-12.4479
▁dual	-12.4479
▁THREAD	-12.4481
▁EXIT	-12.4483
lask	-12.4485
▁gear	-12.4486
udio	-12.4486
▁mpmath	-12.4487
buckets	-12.4487
▁updating	-12.4488
▁'://	-12.4489
*(\\	-12.449
▁Compiler	-12.449
▁SMOTE	-12.4491
▁302	-12.4491
▁properly	-12.4491
▁toolbox	-12.4491
▁ban	-12.4491
▁tkinter	-12.4491
▁convergence	-12.4493
▁trailer	-12.4494
▁Affin	-12.4498
calls	-12.4505
savefig	-12.4506
▁libcloud	-12.4507
qtutils	-12.4508
▁building	-12.4508
▁Year	-12.451
▁mdict	-12.4514
▁sch	-12.4522
▁inheritance	-12.4523
▁away	-12.4525
▁refspec	-12.4525
euid	-12.4526
▁POINT	-12.4532
registry	-12.4533
▁reports	-12.4533
ordinal	-12.4533
bootstrap	-12.4534
dynamic	-12.4534
bem	-12.4534
vispy	-12.4534
▁httpd	-12.4537
anonymous	-12.4538
▁BUILD	-12.4539
▁differences	-12.4544
}</	-12.4545
ring	-12.4547
▁'==	-12.4549
...\	-12.4551
▁STD	-12.4554
native	-12.456
▁powers	-12.456
▁beacons	-12.4561
▁hello	-12.4561
▁tss	-12.4564
▁RC	-12.4564
▁give	-12.4565
svc	-12.4567
0430	-12.4572
▁procs	-12.4573
prob	-12.4574
▁tested	-12.4575
▁sale	-12.458
▁division	-12.4582
▁Restart	-12.4584
▁moments	-12.4584
▁chop	-12.4585
▁'**	-12.4586
▁qq	-12.4587
defs	-12.4593
▁userprofile	-12.46
payment	-12.4601
▁xform	-12.4601
engine	-12.4601
menu	-12.4603
▁evaluators	-12.4609
/*	-12.4612
octet	-12.4612
▁baseurl	-12.4612
▁La	-12.4615
▁blend	-12.4617
▁vhd	-12.4618
▁Prime	-12.4626
▁Cb	-12.4629
MD	-12.4631
▁NP	-12.4633
0000000000000000	-12.4634
▁Neighbor	-12.4635
▁informative	-12.4635
▁ustr	-12.4635
▁lpa	-12.4635
▁trading	-12.4635
▁Dx	-12.4636
▁earlie	-12.4637
▁roi	-12.4637
▁WHITE	-12.4638
▁PKCS	-12.4639
▁RESPONSE	-12.4639
▁stacked	-12.464
erification	-12.4641
▁VERIFY	-12.4641
▁shrinkage	-12.4641
▁older	-12.4642
▁macros	-12.4642
▁portal	-12.4643
▁replies	-12.4644
▁Forest	-12.4645
▁marketing	-12.4647
whl	-12.4647
▁ELB	-12.4647
▁Ba	-12.465
▁radio	-12.4652
▁scm	-12.4656
▁hl	-12.4656
:%02	-12.4657
▁rat	-12.4658
▁heads	-12.4659
▁excepthook	-12.4659
▁CUDA	-12.466
▁assess	-12.4661
▁Optimize	-12.4662
▁offline	-12.4663
▁1234	-12.4663
gaierror	-12.4666
▁MONTH	-12.4675
▁elb	-12.4676
corr	-12.4676
▁groupname	-12.468
▁miss	-12.4686
bulk	-12.4691
wheel	-12.4694
sqlmap	-12.4696
BASE	-12.4698
dirty	-12.4699
sysctl	-12.4701
locations	-12.4701
▁iam	-12.4702
survey	-12.4705
▁knowledge	-12.4705
ame	-12.4709
bind	-12.4709
▁terminated	-12.4709
▁implement	-12.4711
ab	-12.4711
(?:	-12.4713
▁mtx	-12.4713
▁Manage	-12.4715
earth	-12.4717
▁txn	-12.4717
▁estimates	-12.4719
ipython	-12.4722
▁relabel	-12.4723
▁scheduled	-12.4723
ensity	-12.4725
▁Ca	-12.4727
▁machines	-12.4729
▁restriction	-12.4731
▁86400	-12.4732
▁gx	-12.4734
switch	-12.474
▁excinfo	-12.4741
▁arctan	-12.4743
▁endings	-12.4743
▁taken	-12.4754
▁DTYPE	-12.4755
configuration	-12.4756
▁CMS	-12.476
▁pic	-12.4762
>>	-12.4762
▁ciphers	-12.4769
ABC	-12.4771
▁Fact	-12.4772
▁buffered	-12.4774
▁scrub	-12.4775
album	-12.4778
arwin	-12.4778
enultimate	-12.4784
▁jedi	-12.4785
qt	-12.4789
▁INSTANCE	-12.4795
▁cherry	-12.4796
fabric	-12.4796
▁Destroy	-12.4796
▁Glance	-12.4796
▁Cron	-12.4796
▁Translate	-12.4796
▁regime	-12.4797
▁unlimited	-12.4797
▁VARIABLES	-12.4798
▁Viewpoint	-12.48
▁versioned	-12.4801
▁PRIVATE	-12.4802
▁downcast	-12.4803
->	-12.4803
▁regularization	-12.4804
▁fontext	-12.4805
▁recarray	-12.4807
▁BOM	-12.4807
▁34	-12.481
equity	-12.481
▁lit	-12.4811
▁implicit	-12.4811
▁synchronized	-12.4811
▁legal	-12.4812
▁blockdims	-12.4812
▁overflow	-12.4812
▁yt	-12.4812
▁WAIT	-12.4814
sources	-12.4814
▁invitation	-12.4816
▁tour	-12.482
▁hand	-12.4822
▁ARCHIVE	-12.4822
rospack	-12.4823
▁postgres	-12.4824
▁maxplot	-12.4825
▁PROFILE	-12.4826
▁attempted	-12.483
cobbler	-12.4831
REG	-12.4832
IM	-12.4832
▁purchased	-12.4833
▁elasticsearch	-12.4837
rdtype	-12.4841
ntries	-12.4843
▁zs	-12.4845
watch	-12.4845
▁software	-12.4847
pageviews	-12.485
▁Pointer	-12.485
▁prefixlen	-12.4852
▁'{0}:	-12.4854
ENABLE	-12.4856
ASCII	-12.4858
AWS	-12.4859
popup	-12.4859
capacity	-12.486
tock	-12.4863
sides	-12.4865
▁msgpack	-12.4867
▁touch	-12.4869
scheduler	-12.4873
LER	-12.4873
▁FEATURE	-12.4874
▁Force	-12.4875
▁centered	-12.4877
▁isinf	-12.4879
▁Ind	-12.488
▁webhook	-12.4884
▁irc	-12.4886
▁dsa	-12.4886
ure	-12.4886
▁Clip	-12.4892
={}'	-12.4892
▁qubit	-12.4894
▁who	-12.4895
'&	-12.4896
▁prov	-12.4897
▁ASCII	-12.4898
▁sfn	-12.49
33	-12.4901
▁fw	-12.4902
ayout	-12.4902
▁meeting	-12.491
TS	-12.4914
▁cdata	-12.4919
align	-12.4921
▁submissions	-12.4926
▁INIT	-12.4937
<%	-12.4942
▁cookiecutter	-12.4946
▁Chars	-12.4947
▁manipulat	-12.4951
▁la	-12.4954
viewpoint	-12.4955
▁getnode	-12.4956
compat	-12.4957
egression	-12.4957
lms	-12.4958
pavelib	-12.496
▁Advance	-12.496
▁KIND	-12.496
▁Octet	-12.496
NFK	-12.496
▁Fraction	-12.496
▁handled	-12.4961
▁Actual	-12.4961
▁Uri	-12.4961
▁Debia	-12.4963
▁RESULT	-12.4963
▁normed	-12.4965
▁FILTER	-12.4965
taff	-12.4968
▁MODULES	-12.4968
▁Additional	-12.4968
▁interrupt	-12.4969
▁newdata	-12.497
▁ARGS	-12.497
▁WORDS	-12.4971
▁cffi	-12.4971
▁authenticator	-12.4971
▁outgoing	-12.4971
▁BODY	-12.4971
▁azimuth	-12.4973
▁approve	-12.4973
▁TOOL	-12.498
▁Db	-12.498
otable	-12.4981
▁HMAC	-12.4981
sheet	-12.4983
▁clique	-12.4984
▁atan	-12.4984
▁ignoring	-12.4985
▁sysconfig	-12.4993
avg	-12.4994
▁dpss	-12.4998
▁NOTIFICATION	-12.5001
▁generators	-12.5005
▁elm	-12.5007
endpoints	-12.5011
spam	-12.5011
nzb	-12.5015
▁periodic	-12.5017
▁9.0	-12.5017
claimed	-12.5017
▁mangle	-12.5018
training	-12.5018
▁etc	-12.5018
zorder	-12.5019
jpeg	-12.5023
▁saw	-12.5023
debian	-12.5024
▁CLI	-12.5024
recursive	-12.5024
suggested	-12.5024
SSH	-12.5024
bigip	-12.5026
MNE	-12.5026
DEFAULT	-12.5026
apache	-12.5027
publish	-12.5027
average	-12.5028
▁separated	-12.5029
▁SHOW	-12.503
CE	-12.503
▁TZ	-12.5032
dependencies	-12.5033
▁Repeate	-12.5034
▁ncol	-12.5038
▁anon	-12.5047
>>=	-12.5047
}:{	-12.5047
scmd	-12.5049
acl	-12.5054
▁customize	-12.5054
pend	-12.5057
▁backref	-12.5059
▁Sav	-12.5059
▁constr	-12.506
▁averages	-12.506
ntegrity	-12.5062
▁contribution	-12.5065
xcode	-12.5065
tied	-12.5066
▁equation	-12.5066
romise	-12.507
▁www	-12.5071
90	-12.5075
▁sb	-12.5075
▁unload	-12.5077
.*	-12.5079
▁pure	-12.5084
▁subsystem	-12.5087
execute	-12.5088
▁printing	-12.5088
▁unlock	-12.5089
▁expressions	-12.5091
!\	-12.5093
inputs	-12.5094
▁pager	-12.5096
:{	-12.5099
▁dh	-12.5104
▁contribs	-12.5104
face	-12.5106
▁gem	-12.5106
amily	-12.5113
inception	-12.5115
observation	-12.5116
▁Om	-12.5116
CF	-12.5116
operation	-12.5119
▁oc	-12.5119
▁sniff	-12.512
vn	-12.5121
runner	-12.5121
appbuilder	-12.5125
▁Rectangle	-12.5127
▁Rotation	-12.5127
▁Wild	-12.5128
▁Encrypt	-12.5128
redundant	-12.5129
▁tiny	-12.5129
2/	-12.513
▁robust	-12.513
▁privs	-12.5131
▁tck	-12.5131
▁anim	-12.5131
▁EXTENSIONS	-12.5131
▁explicitly	-12.5132
▁rootdir	-12.5133
contents	-12.5133
▁EXTRA	-12.5133
▁lf	-12.5135
IC	-12.514
grant	-12.514
▁"'{0}'	-12.514
cookie	-12.5141
▁Redi	-12.5142
▁MULTI	-12.5143
▁FE	-12.5145
▁eventlet	-12.5145
PIO	-12.5146
algorithm	-12.5149
enc	-12.5153
▁fst	-12.5153
▁lbl	-12.5153
LY	-12.5154
▁ERRORS	-12.5157
▁lte	-12.5157
metrics	-12.5158
▁LP	-12.5161
▁packs	-12.5166
▁Ace	-12.517
▁unread	-12.5173
▁PRE	-12.5177
▁(%(	-12.5177
▁SF	-12.5177
*.	-12.5178
▁decision	-12.5178
▁encodings	-12.5181
▁Frequenc	-12.5185
▁evalf	-12.5185
confirm	-12.519
▁Bin	-12.5191
retry	-12.5191
mgr	-12.5193
AUTH	-12.5194
assert	-12.5195
tooltip	-12.5195
facility	-12.5195
matplotlib	-12.5197
▁asg	-12.5199
▁mutate	-12.5202
▁revs	-12.5204
▁testmod	-12.5208
ttl	-12.5209
▁Carv	-12.5213
▁grants	-12.5214
▁RESET	-12.5218
▁HA	-12.5218
▁mako	-12.5223
▁neigh	-12.5226
flavorid	-12.5226
▁predictor	-12.5226
nvis	-12.5227
▁starts	-12.5227
▁articles	-12.5228
▁OUT	-12.5228
▁meas	-12.523
(?	-12.523
▁cint	-12.5231
pkgutil	-12.5232
▁rpa	-12.5234
▁timestr	-12.5235
▁Tab	-12.5238
▁ser	-12.524
▁knn	-12.5245
▁su	-12.5254
▁wildcards	-12.5257
steps	-12.5257
pager	-12.5258
▁fileserver	-12.5259
▁identities	-12.5261
best	-12.5263
▁ig	-12.5264
▁qemu	-12.5267
▁hc	-12.5269
▁propos	-12.527
fabmetheus	-12.5271
▁Neste	-12.5272
▁0.30	-12.5274
spective	-12.5276
▁Cross	-12.5277
▁Pa	-12.5277
▁"{}"	-12.528
▁graded	-12.5281
▁converge	-12.5285
▁Grad	-12.5285
▁pydot	-12.5286
▁negate	-12.5288
tc	-12.5288
▁'%02	-12.5289
transform	-12.529
ea	-12.5292
▁Desktop	-12.5296
▁Gradient	-12.5296
▁adjective	-12.5296
▁Abstract	-12.5296
▁Translator	-12.5296
▁TBL	-12.5297
▁meijerg	-12.5297
▁CORE	-12.5298
▁Weight	-12.5298
variable	-12.5298
epoch	-12.5298
▁skull	-12.5298
▁whole	-12.5299
▁BATCH	-12.5299
▁1024.0	-12.53
▁assembly	-12.5301
▁fq	-12.5301
▁protocols	-12.5305
▁serialization	-12.5306
▁PLOT	-12.5306
▁flaskbb	-12.5308
▁CHANGE	-12.5308
▁Resolve	-12.531
▁spot	-12.5311
▁SIGINT	-12.5311
▁gtk	-12.5311
▁graphviz	-12.5312
▁topomap	-12.5312
▁Provide	-12.5313
▁FLOAT	-12.5314
▁thumbprint	-12.5315
te	-12.5315
▁increasing	-12.5316
▁forever	-12.5317
▁symbolic	-12.5318
▁Like	-12.5319
▁COLORS	-12.5322
▁FK	-12.5322
▁dna	-12.5322
▁extraction	-12.5323
▁platforms	-12.5323
▁permalink	-12.5323
▁ppf	-12.5324
cholesky	-12.5326
▁solr	-12.5327
▁telnet	-12.5327
▁FORM	-12.5329
▁tbss	-12.5333
▁Represent	-12.5334
▁ng	-12.5336
▁DN	-12.5337
▁Unpack	-12.5338
▁taxonomy	-12.5343
▁qualifiers	-12.5343
▁docstr	-12.5343
meas	-12.5347
tensor	-12.5347
▁UR	-12.5348
rbenv	-12.5348
{2}'	-12.5352
certificates	-12.5352
{'	-12.5354
keyid	-12.5357
▁pixmap	-12.5358
▁detailed	-12.5358
),\	-12.5358
▁'%%	-12.5361
▁Hat	-12.5365
MAX	-12.5366
▁pol	-12.5366
instructor	-12.5369
▁Dec	-12.5371
put	-12.5371
checkout	-12.5374
tgt	-12.5375
}:	-12.5377
based	-12.5378
pidfile	-12.5378
RS	-12.5379
grade	-12.5381
▁decimals	-12.5383
▁bv	-12.5386
▁connargs	-12.5386
▁fetched	-12.5387
▁cohorts	-12.5392
▁configfile	-12.5393
solr	-12.5394
▁Cipher	-12.5396
▁imax	-12.5397
so	-12.5402
▁Near	-12.5403
▁colour	-12.5405
tris	-12.5407
▁Move	-12.541
0.0	-12.5416
▁quot	-12.5416
▁commentable	-12.5418
staticmethod	-12.5421
cmp	-12.5421
lr	-12.5421
▁screenshot	-12.5424
▁160	-12.5426
zh	-12.5426
sockname	-12.543
▁pole	-12.5431
▁audience	-12.5432
▁clen	-12.5432
▁pickled	-12.5432
▁idz	-12.5442
▁bps	-12.5444
▁jump	-12.5446
▁Relation	-12.5447
syslog	-12.545
15	-12.5459
▁Sym	-12.5461
ifference	-12.5462
▁LOCALE	-12.5463
▁deactivate	-12.5467
▁Calendar	-12.5469
▁Destination	-12.5469
▁Experiment	-12.5469
▁Communication	-12.5469
USR	-12.5469
▁ORIGINAL	-12.547
0438\	-12.547
room	-12.5471
▁EPOCH	-12.5471
▁smtplib	-12.5473
▁Theme	-12.5473
▁pkgver	-12.5473
MOD	-12.5475
▁producer	-12.5476
▁taxon	-12.5477
▁gfk	-12.5477
descending	-12.5477
▁threaded	-12.5477
▁identical	-12.5479
▁prio	-12.548
▁slashes	-12.548
hist	-12.5484
▁pubsub	-12.5484
▁extern	-12.5484
▁decrypted	-12.5485
nasion	-12.5487
▁triangles	-12.5487
▁cu	-12.5487
▁redemption	-12.5489
trivial	-12.5489
▁converged	-12.5492
▁RAW	-12.5495
▁forbidden	-12.5495
▁Catalog	-12.5495
TLE	-12.5501
▁msbuild	-12.5501
▁Deserialize	-12.5515
14	-12.5516
▁repetition	-12.5516
▁sam	-12.5517
▁spyder	-12.5518
▁224	-12.5518
▁canon	-12.5519
sunos	-12.5522
tgz	-12.5523
1000000.0	-12.5524
▁ship	-12.5526
retrieve	-12.5526
▁installing	-12.5526
▁33	-12.5528
▁Consume	-12.553
▁loaders	-12.5531
cyan	-12.5531
cross	-12.5533
mb	-12.5535
postgresql	-12.5538
▁keychain	-12.5539
BEGIN	-12.554
creator	-12.5543
quantity	-12.5543
fqdn	-12.5544
netmask	-12.5545
▁executed	-12.5547
customer	-12.5548
clock	-12.5549
episodes	-12.5552
loss	-12.5556
▁LIB	-12.5559
▁Demi	-12.556
▁paragraphs	-12.5561
ymin	-12.5562
MODE	-12.5564
recaptcha	-12.5565
0000.0	-12.5568
▁dkl	-12.5572
▁devname	-12.5575
nable	-12.5575
voked	-12.5576
▁dft	-12.5579
pyglet	-12.5581
▁projector	-12.5581
▁minval	-12.5582
▁balancers	-12.5586
blocking	-12.5589
ATION	-12.5593
▁Ep	-12.5596
prod	-12.5597
cal	-12.5599
>[	-12.5602
("	-12.5603
▁appears	-12.5609
rar	-12.5611
▁postprocess	-12.5611
▁magnitude	-12.5614
PEM	-12.5615
▁2013	-12.5617
▁xl	-12.5619
▁award	-12.5626
oftware	-12.5626
bcc	-12.5629
▁Assembl	-12.5632
▁EXT	-12.5632
▁refine	-12.5635
gemm	-12.5636
symbol	-12.5641
▁LOOKUP	-12.5644
▁Insert	-12.5644
▁Dead	-12.5644
▁topicsread	-12.5646
▁automatically	-12.5647
▁Alg	-12.5648
▁chol	-12.5648
permission	-12.5649
distance	-12.5649
▁rrset	-12.5651
▁BACKENDS	-12.5652
▁colorscale	-12.5659
▁FRAME	-12.5663
▁Walk	-12.5664
▁overview	-12.5664
▁psycopg	-12.5665
▁Receiver	-12.5665
winerror	-12.5666
▁QQ	-12.5666
▁repositories	-12.5667
▁jl	-12.5668
▁overload	-12.5671
▁standardize	-12.5671
▁amax	-12.5673
▁Disconnect	-12.5674
IS	-12.568
▁compatibility	-12.5681
▁ofp	-12.5683
▁TOP	-12.5683
▁rounds	-12.5686
flush	-12.5686
▁NB	-12.5687
▁GRR	-12.5688
▁brew	-12.5689
▁meminfo	-12.5692
▁xmlrpc	-12.5693
▁mkfs	-12.5693
icular	-12.5693
▁opacity	-12.5694
torrent	-12.57
▁OAUTH	-12.57
▁sigmas	-12.5702
▁distr	-12.5703
enterprise	-12.5705
neg	-12.571
eta	-12.5711
mako	-12.572
▁0.99	-12.572
lo	-12.5721
▁tenants	-12.5721
company	-12.5722
iterator	-12.5722
handle	-12.5724
resolvers	-12.5724
▁unzip	-12.5728
▁braces	-12.5732
▁methodname	-12.5734
RGBA	-12.5735
▁dpid	-12.5737
29	-12.5745
▁ker	-12.5745
▁mini	-12.5756
▁spine	-12.5761
{!	-12.5764
trust	-12.5768
homepage	-12.5769
hysical	-12.5771
▁Strip	-12.5772
▁importing	-12.5773
▁'1.0'	-12.5775
▁collectors	-12.5775
cumulative	-12.5779
▁way	-12.5781
▁reconstruct	-12.5786
inradius	-12.5789
polys	-12.5789
▁linecache	-12.5791
▁stdev	-12.5793
▁artists	-12.5794
▁lval	-12.5797
▁COOKIES	-12.5797
TO	-12.5798
▁selections	-12.5799
cm	-12.58
▁hover	-12.5803
floating	-12.5805
compile	-12.5805
▁ncb	-12.5807
▁fld	-12.5809
nrecognized	-12.581
▁edx	-12.5812
▁rq	-12.5814
▁fitnesse	-12.5822
▁compensat	-12.5822
▁Music	-12.5823
groovy	-12.5823
▁Prompt	-12.5823
▁gnupghome	-12.5823
▁cxpoint	-12.5823
'='	-12.5823
▁REPLACEMENT	-12.5823
▁allele	-12.5824
▁zwave	-12.5824
▁whether	-12.5824
▁gettempdir	-12.5825
+)\\	-12.5825
▁attrgetter	-12.5826
xes	-12.5826
▁7.0	-12.5828
▁Expires	-12.5828
▁regularize	-12.5829
▁perimeter	-12.5829
▁CONTEXT	-12.5829
▁blocker	-12.5833
▁0.92	-12.5834
ticks	-12.5834
▁ensemble	-12.5835
LATED	-12.5836
▁STYLE	-12.5836
▁FULL	-12.584
▁TRUE	-12.5844
▁music	-12.5844
▁heartbeat	-12.5845
▁ah	-12.5845
▁beam	-12.5846
▁upsample	-12.5847
▁EXEC	-12.5848
▁kpc	-12.5848
▁Kit	-12.585
▁Stopp	-12.5852
▁located	-12.5853
▁Ignore	-12.5853
▁WIDTH	-12.5855
▁'10	-12.5857
gloo	-12.5859
▁Effect	-12.586
lon	-12.5862
})'	-12.5864
▁parm	-12.5866
▁nics	-12.5866
collections	-12.5867
▁performance	-12.5867
LAN	-12.5871
▁Utilit	-12.5871
ide	-12.5872
▁pathlen	-12.5873
▁hspace	-12.5875
▁eni	-12.5875
▁Credi	-12.5878
▁pde	-12.5878
▁Editor	-12.5879
void	-12.5882
▁wa	-12.5884
tx	-12.5884
▁gaps	-12.5884
▁chall	-12.5885
▁Mat	-12.5889
▁NON	-12.5894
torch	-12.5894
▁Contacts	-12.5896
ISO	-12.5898
ubyte	-12.5899
DATE	-12.5901
speed	-12.5901
UPDATE	-12.5901
biom	-12.5901
▁newnode	-12.5903
operand	-12.5903
trunk	-12.5903
ajax	-12.5904
regex	-12.5909
▁grey	-12.5911
▁Pars	-12.5917
keywords	-12.5921
▁cdn	-12.5926
▁inbound	-12.5931
▁MP	-12.5933
ne	-12.5934
▁heuristic	-12.5938
▁spans	-12.5938
ANCE	-12.5939
▁feats	-12.5939
▁arp	-12.5942
click	-12.5942
▁Lite	-12.5945
ashboard	-12.5948
PID	-12.5951
▁Mas	-12.5956
▁elevate	-12.5957
bigquery	-12.5958
▁493	-12.5964
router	-12.5965
selected	-12.5965
dry	-12.597
permissions	-12.5975
optionflags	-12.5976
▁Direct	-12.598
▁Launch	-12.5985
nan	-12.599
▁Click	-12.599
▁Docker	-12.5992
license	-12.5994
utable	-12.5995
times	-12.5997
▁DEFINE	-12.5998
▁well	-12.5998
85	-12.5998
▁mins	-12.6002
▁isotime	-12.6003
▁blocking	-12.6004
systemd	-12.6004
▁Neighbour	-12.6004
▁mailchimp	-12.6004
MIDDLEWARE	-12.6005
▁Wk	-12.6005
▁favor	-12.6005
▁Predict	-12.6005
▁kept	-12.6005
▁genome	-12.6006
▁erfa	-12.6006
▁cirs	-12.6007
▁AVAILABLE	-12.6007
▁sockaddr	-12.6008
▁UPDATED	-12.6008
condition	-12.6009
▁bevel	-12.6009
▁backtrack	-12.601
▁shim	-12.6011
▁REFERER	-12.6011
urls	-12.6012
▁ZONE	-12.6013
signal	-12.6014
soft	-12.6015
dic	-12.6016
▁babel	-12.6016
▁Prop	-12.6017
▁origins	-12.6018
minutes	-12.6019
▁games	-12.6019
▁Mismatch	-12.6021
▁ascending	-12.6021
▁sidebar	-12.6023
▁ceph	-12.6024
▁multioutput	-12.6024
▁disjoint	-12.6027
▁Her	-12.6029
▁elbo	-12.6031
▁declared	-12.6032
▁ngettext	-12.6033
▁GOOGLE	-12.6034
|\	-12.6036
ore	-12.6037
actor	-12.6039
signed	-12.6039
▁THEME	-12.6039
plus	-12.604
ENT	-12.6043
▁511	-12.6045
▁flake	-12.6045
▁NZB	-12.6047
▁slack	-12.6049
▁Clock	-12.6051
▁mic	-12.6053
(\	-12.6054
ate	-12.606
ndim	-12.6063
▁newname	-12.6064
▁replica	-12.6066
getpwnam	-12.6071
googleapi	-12.6073
yy	-12.6075
"'%	-12.6076
▁De	-12.608
▁pyx	-12.608
▁paused	-12.6083
DROP	-12.6086
▁joiner	-12.6087
idna	-12.6088
▁ipdir	-12.609
optional	-12.6091
▁exiting	-12.6092
▁substitutions	-12.6094
▁variants	-12.6099
ips	-12.6099
▁clim	-12.61
▁ANSI	-12.6103
▁rtr	-12.6121
▁cfgfile	-12.613
▁sysctl	-12.6133
ro	-12.6133
verage	-12.6141
coords	-12.6143
▁Codes	-12.6144
▁dbapi	-12.6147
fdopen	-12.6148
▁QUEUE	-12.6148
▁CM	-12.6158
tb	-12.6164
▁TOL	-12.6164
--	-12.6165
MB	-12.6166
▁bgp	-12.6171
alnum	-12.6172
▁keyboard	-12.6177
xploration	-12.6178
▁urlun	-12.6178
izer	-12.6182
parametric	-12.6185
▁Ed	-12.6185
▁Members	-12.6188
▁openssl	-12.6189
▁Answer	-12.619
▁SPECIAL	-12.619
▁Present	-12.619
CONFIGURING	-12.6191
sequence	-12.6191
▁nonnegative	-12.6192
▁Lead	-12.6193
▁tapers	-12.6193
▁surrounding	-12.6193
▁separation	-12.6195
▁birth	-12.6196
▁Shard	-12.6196
▁SRC	-12.6196
▁manifestation	-12.6197
▁FUNCTION	-12.6198
▁Coordinate	-12.6198
▁rectangle	-12.6198
▁better	-12.6199
▁CHARSET	-12.6199
▁RESULTS	-12.6199
▁crossentropy	-12.62
▁SUPPORT	-12.6202
ogistic	-12.6205
▁emitter	-12.6206
website	-12.6207
▁elevation	-12.6208
hd	-12.6208
▁alerts	-12.6212
▁backlog	-12.6213
▁DOMAINS	-12.6213
▁Best	-12.6213
▁ava	-12.6213
▁comes	-12.6215
▁frags	-12.6215
▁'{0}\	-12.6215
bout	-12.6217
▁consumed	-12.6219
more	-12.6219
▁'%.2	-12.622
▁privacy	-12.622
▁outbox	-12.6221
▁ends	-12.6224
▁cifar	-12.6227
SIZE	-12.6232
▁Relat	-12.6232
▁Visit	-12.6237
good	-12.6237
▁des	-12.6239
-8859-1'	-12.624
▁LIGHT	-12.6241
existing	-12.6246
ue	-12.6248
snapper	-12.625
▁cronjob	-12.6251
fe	-12.6253
▁likes	-12.6253
optimize	-12.6253
▁Capabilit	-12.6254
▁contour	-12.6256
resize	-12.6257
▁shifts	-12.6258
ml	-12.626
▁exploit	-12.6266
▁monoms	-12.6269
bias	-12.627
▁Chat	-12.627
▁monkey	-12.627
▁baz	-12.6272
▁Friend	-12.6273
ENGINE	-12.6274
▁nickname	-12.6276
bash	-12.6277
LANG	-12.6277
mobile	-12.6277
scratch	-12.6277
multigraph	-12.6277
overwrite	-12.6278
unexpected	-12.6278
completion	-12.6278
contiguous	-12.6278
metadef	-12.6279
misc	-12.6281
xmlns	-12.6281
destroyed	-12.6283
but	-12.6283
pairs	-12.6287
theta	-12.6287
▁sgs	-12.629
049	-12.629
▁cnf	-12.6291
0442	-12.6291
specificity	-12.6292
----'	-12.6295
agger	-12.6296
▁agents	-12.6299
▁0.45	-12.6301
==1.0'	-12.6302
[0-9	-12.6302
▁flavors	-12.6302
▁xa	-12.6305
lru	-12.6305
ADD	-12.6307
pi	-12.6312
▁65	-12.6312
▁Rings	-12.6315
▁dum	-12.6321
▁111	-12.6324
▁variation	-12.6326
▁Go	-12.6326
▁Rendere	-12.6329
userena	-12.633
shutdown	-12.6334
MI	-12.6339
▁hemis	-12.6341
▁nid	-12.6344
▁fails	-12.6348
tudio	-12.6352
▁instr	-12.6353
▁san	-12.6354
▁lighten	-12.6358
1,	-12.6359
▁formater	-12.6362
▁sem	-12.6371
▁OPTION	-12.6372
▁{}:	-12.6374
ess	-12.6374
▁includ	-12.6374
▁Math	-12.6375
▁REGION	-12.6376
▁'[]'	-12.6377
▁ndb	-12.6378
zinnia	-12.6378
▁Scheme	-12.6378
▁Sequential	-12.6378
▁Subreddit	-12.6379
▁heappush	-12.6379
▁CHOICES	-12.6379
▁NORMAL	-12.638
▁REPO	-12.6381
kw	-12.6382
rpc	-12.6382
▁greedy	-12.6384
stateful	-12.6385
▁webbrowser	-12.6387
▁Realm	-12.6388
splitted	-12.6393
▁Req	-12.6393
▁learner	-12.6395
detail	-12.6396
recipient	-12.6396
▁regs	-12.6397
▁cooc	-12.6398
▁SE	-12.6398
▁coalesce	-12.6398
▁allocations	-12.6398
▁fine	-12.6399
mi	-12.64
▁fhandle	-12.6403
IAN	-12.6404
▁rich	-12.6404
▁unparse	-12.6406
▁realtime	-12.641
▁netcon	-12.6419
▁'{0}':	-12.6419
▁PDF	-12.6421
▁FAIL	-12.6423
▁fsync	-12.6424
▁snippets	-12.6425
cnt	-12.643
▁suites	-12.6431
▁outfn	-12.6433
▁pillarenv	-12.6434
▁REST	-12.6434
etcd	-12.6434
▁neutron	-12.6434
you	-12.6436
▁connectable	-12.6442
macosx	-12.6443
▁ipy	-12.6444
STI	-12.6444
▁zm	-12.6448
▁Poll	-12.6449
ey	-12.645
codon	-12.6455
6684	-12.6455
translate	-12.6456
countdown	-12.6456
hosted	-12.6456
forward	-12.6457
HOST	-12.6457
comp	-12.6458
aking	-12.646
compress	-12.6461
urlencoded	-12.6462
spmatrix	-12.6466
▁pf	-12.6468
LOGIN	-12.647
while	-12.6471
riority	-12.6472
atable	-12.6474
▁UP	-12.6474
▁paired	-12.6477
scores	-12.648
nii	-12.6481
ami	-12.6482
▁({})	-12.6482
▁rounding	-12.6482
▁prim	-12.6485
▁CHARACTER	-12.6485
▁Ws	-12.6489
▁etags	-12.6489
="{	-12.6494
96\	-12.6494
▁placeholders	-12.6495
▁excl	-12.65
▁emoji	-12.6512
▁purpose	-12.6513
▁dependent	-12.6514
▁tickets	-12.6515
▁sector	-12.652
samp	-12.6525
▁dirlist	-12.6525
encoders	-12.6527
states	-12.6528
versions	-12.6532
▁brace	-12.6532
▁SR	-12.6537
bold	-12.6537
move	-12.6541
generator	-12.6547
bridge	-12.6548
▁endif	-12.6548
fk	-12.6557
ull	-12.6558
ftp	-12.6558
ndroid	-12.6559
▁Translations	-12.656
▁mg	-12.6562
▁advance	-12.6563
▁chrom	-12.6563
-09	-12.6564
▁topological	-12.657
openxmlformats	-12.6571
▁clazz	-12.6571
▁Permutation	-12.6571
kvm	-12.6571
▁Builtin	-12.6571
▁Submission	-12.6572
▁Computation	-12.6572
▁REPORT	-12.6572
▁gcf	-12.6573
▁CRLF	-12.6574
▁Demo	-12.6574
▁Specify	-12.6575
defined	-12.6575
▁arrs	-12.6576
▁idict	-12.6577
▁commutative	-12.6578
▁OFFSET	-12.6578
▁dropped	-12.6578
▁SLUG	-12.658
gray	-12.6583
▁sendmail	-12.6583
▁bridges	-12.6584
▁computer	-12.6584
▁underline	-12.6585
▁addition	-12.6588
layers	-12.659
▁Viewer	-12.659
▁OLS	-12.6591
▁growl	-12.6591
deployment	-12.6593
mfield	-12.6593
▁likeli	-12.6593
▁webserver	-12.6594
thumbnail	-12.6594
controller	-12.6596
▁taskqueue	-12.6599
▁hostgroup	-12.6603
▁yarn	-12.6604
mbcs	-12.6605
▁memb	-12.6608
▁vid	-12.661
▁Lv	-12.6611
▁exporter	-12.6611
▁weekly	-12.6612
▁fring	-12.6613
▁capitalized	-12.6616
▁assemble	-12.6619
cdrom	-12.6619
luts	-12.6619
opdown	-12.6623
▁mounted	-12.6624
▁'>>	-12.6624
▁pynet	-12.6626
▁polling	-12.6628
▁sqs	-12.663
chunks	-12.6633
▁psql	-12.6637
▁keypoints	-12.6637
blank	-12.664
▁Pb	-12.6641
elative	-12.6645
▁incompatible	-12.6647
▁yb	-12.6648
migrate	-12.6648
ant	-12.6651
note	-12.6652
highlight	-12.6653
▁msgstr	-12.6656
we	-12.6657
cbook	-12.666
unstable	-12.666
▁downloads	-12.666
fsaverage	-12.6661
▁astropy	-12.6662
ONLY	-12.6664
AE	-12.6664
ruby	-12.6666
recv	-12.6666
setuptools	-12.6666
assign	-12.6666
▁Closed	-12.6666
▁otus	-12.6667
slave	-12.6667
▁modulename	-12.6668
knn	-12.6668
theano	-12.6668
▁Installe	-12.667
▁resolvers	-12.667
ENTRY	-12.667
DC	-12.6672
▁72	-12.6675
▁spm	-12.6676
domains	-12.6679
solve	-12.668
▁communication	-12.6685
srcdir	-12.6686
▁xfail	-12.6691
▁PART	-12.6697
▁Cast	-12.6697
▁xc	-12.6702
ler	-12.6704
▁eof	-12.6705
keygen	-12.6707
▁quantile	-12.6709
▁TT	-12.6716
▁timing	-12.6719
▁campaigns	-12.6723
scm	-12.6725
▁Fa	-12.6725
▁Xi	-12.6727
▁testfile	-12.6728
angle	-12.6731
kg	-12.6732
▁numerical	-12.6735
▁organizations	-12.674
over	-12.6741
▁55	-12.6745
▁gram	-12.6747
▁alarms	-12.6749
▁plans	-12.6752
▁near	-12.6753
▁stepsize	-12.6755
onvergence	-12.6756
▁ol	-12.6757
▁GB	-12.6757
▁MAC	-12.6758
▁HIGHE	-12.6762
chain	-12.6762
▁nit	-12.6763
▁dups	-12.6764
▁ppa	-12.6765
▁Alternative	-12.6767
▁Association	-12.6767
▁bodies	-12.6767
▁Refresh	-12.6767
▁GAME	-12.6767
layman	-12.6767
▁ortho	-12.6768
▁THRESHOLD	-12.6768
▁MONITOR	-12.6768
▁ATTRIBUTES	-12.6769
▁preexec	-12.6769
▁dashes	-12.677
▁propagation	-12.677
▁targ	-12.677
▁relax	-12.6771
SA	-12.6771
▁DEPTH	-12.6772
▁MISSING	-12.6772
stubs	-12.6772
spatial	-12.6773
parameters	-12.6773
▁harvest	-12.6774
▁COMMON	-12.6775
▁happen	-12.6776
▁COMMANDS	-12.6777
▁MANIFEST	-12.6778
▁toctree	-12.6778
▁renderers	-12.6779
▁chimeras	-12.678
▁simplified	-12.678
▁CONNECTION	-12.678
▁development	-12.678
▁icontains	-12.6782
direct	-12.6783
▁pymodule	-12.6783
▁logp	-12.6783
▁SPLIT	-12.6784
livestreamer	-12.6789
linenumbers	-12.679
▁unverified	-12.6791
▁frontend	-12.6794
arkdown	-12.6795
pep	-12.6795
▁bcd	-12.6796
component	-12.6796
sender	-12.6799
▁Threads	-12.68
getpid	-12.6801
▁PASS	-12.6801
▁cython	-12.6801
compose	-12.6801
interactive	-12.6804
▁Deserializ	-12.6804
▁rereview	-12.6804
▁Rest	-12.6805
▁201	-12.6808
▁evennia	-12.6809
042	-12.6811
▁pvalues	-12.6812
▁srcname	-12.6814
CSRF	-12.6814
2.0	-12.6815
AF	-12.6816
▁relationships	-12.6818
▁bdist	-12.6819
npm	-12.6819
8192	-12.682
▁refreshed	-12.6824
▁Checkpoint	-12.6825
▁fmd	-12.6827
▁Representati	-12.683
▁gold	-12.683
▁eqs	-12.6832
▁nrt	-12.6833
▁piv	-12.6836
▁collected	-12.6838
▁autocomplete	-12.6844
100	-12.6845
fingerprint	-12.6848
truncate	-12.6852
▁PACKAGE	-12.6858
▁MASTER	-12.686
initools	-12.686
PYTHON	-12.6861
PATCH	-12.6862
frag	-12.6865
permanent	-12.6865
additional	-12.6866
preferred	-12.6866
secgroup	-12.6867
markdown	-12.6869
noise	-12.6871
8734	-12.6873
[0]	-12.6876
▁SCAN	-12.6879
\\01	-12.6882
▁0.38	-12.6883
▁cuts	-12.6884
bf	-12.6889
▁ovs	-12.6897
▁covs	-12.6898
completed	-12.6899
fg	-12.6899
▁binop	-12.69
▁receivable	-12.6901
cost	-12.6902
▁stopb	-12.6903
quoted	-12.6906
▁gy	-12.6907
▁Gc	-12.6916
▁leader	-12.6919
▁sof	-12.692
▁getheader	-12.6921
executable	-12.6922
schemas	-12.6927
levels	-12.6927
</%	-12.6928
▁transcript	-12.693
▁Mob	-12.6935
radon	-12.6938
▁logit	-12.6942
▁wor	-12.6947
lookup	-12.6947
median	-12.6947
▁kms	-12.6952
▁bzr	-12.6953
▁Share	-12.6956
▁sax	-12.6958
39	-12.6959
▁turn	-12.6962
▁searcher	-12.6964
▁Encounter	-12.6967
▁Convolution	-12.6967
▁SCHEME	-12.6967
▁Partition	-12.6967
▁Modifier	-12.6967
▁DATASET	-12.6967
▁Special	-12.6967
httpbin	-12.6967
▁accumulator	-12.6968
▁eeglab	-12.6968
▁rjust	-12.697
▁BOOL	-12.697
++	-12.6971
▁jacobian	-12.6972
▁CTRL	-12.6972
▁labeled	-12.6972
▁shaft	-12.6973
▁sdata	-12.6975
BOLD	-12.6976
▁Dynamic	-12.6977
▁keepalive	-12.6978
timesince	-12.6982
ellipsis	-12.6983
▁mcs	-12.6984
fat	-12.6984
▁SIGN	-12.6987
routes	-12.6988
▁dark	-12.699
▁subsets	-12.699
guest	-12.6992
▁0.031	-12.6997
(),	-12.6999
▁USERS	-12.7002
▁fir	-12.7003
ics	-12.7003
ticklabels	-12.7004
▁necessary	-12.7005
meshgrid	-12.7005
▁sharing	-12.7006
▁pywin	-12.7012
bins	-12.7014
▁upstream	-12.7014
cookiecutter	-12.7015
identification	-12.7017
▁docutils	-12.7021
▁'{0}={1}	-12.7021
adding	-12.7023
▁jt	-12.7024
▁gitf	-12.7027
inion	-12.7028
▁memcached	-12.7028
▁urlize	-12.7037
.0'	-12.7037
ws	-12.7037
▁bricks	-12.7042
▁STR	-12.7042
arbitrary	-12.7048
ndimage	-12.7049
expect	-12.7051
▁vl	-12.7052
▁nginx	-12.7052
bookstore	-12.7055
extract	-12.7058
heap	-12.7059
▁inode	-12.706
▁Tester	-12.706
▁yp	-12.706
▁evaluations	-12.7062
▁59	-12.7063
▁Late	-12.7064
▁cassandra	-12.7066
gpt	-12.7068
php	-12.7069
PORT	-12.707
icrs	-12.7072
▁Anal	-12.7072
pred	-12.7072
unix	-12.7073
▁pX	-12.7083
plotly	-12.7085
fA	-12.7086
FUNC	-12.7087
▁ada	-12.7088
▁npt	-12.7097
delphi	-12.71
▁pcoa	-12.71
▁aspec	-12.7103
▁violation	-12.7105
▁rtype	-12.7107
relu	-12.7111
acebook	-12.7115
GB	-12.7117
▁vdis	-12.7121
interfaces	-12.7125
▁blocklist	-12.7129
▁featured	-12.7131
▁participants	-12.7133
certs	-12.7135
rss	-12.7138
=0	-12.7146
cover	-12.7148
▁errstr	-12.7149
▁'{0}/{1}	-12.7149
▁rlist	-12.7152
▁etcd	-12.7156
▁tofile	-12.7157
▁MEAN	-12.716
pth	-12.7161
ze	-12.7163
▁rerun	-12.7163
▁Hard	-12.7168
▁marshal	-12.7168
▁Cylind	-12.7171
▁jacobi	-12.7171
▁Reason	-12.7171
▁Synapse	-12.7171
▁Decay	-12.7171
▁debias	-12.7171
▁Will	-12.7171
globs	-12.7172
hamming	-12.7173
▁lstat	-12.7174
{%	-12.7174
▁PERMISSIONS	-12.7174
▁DELAY	-12.7176
▁strength	-12.7176
-1.0-	-12.718
▁triangular	-12.7181
▁circ	-12.7181
?\\	-12.7181
▁rug	-12.7182
▁significant	-12.7183
▁HEADERS	-12.7183
▁resultant	-12.7184
▁gcs	-12.7184
▁sched	-12.7184
▁8.0	-12.7185
▁0.85	-12.7186
▁getmodule	-12.7186
▁UNIX	-12.7187
▁incref	-12.7187
consistencygroup	-12.7192
▁rus	-12.7196
kill	-12.7197
▁territory	-12.7198
▁Yes	-12.7199
▁LEFT	-12.7199
▁recorder	-12.72
▁Issue	-12.7201
WIN	-12.7203
▁puts	-12.7203
▁MEM	-12.7203
▁trakt	-12.7204
calendar	-12.7204
▁looks	-12.7204
25	-12.7205
subscription	-12.7208
translation	-12.721
▁curv	-12.7211
etools	-12.7214
▁ticker	-12.7214
keras	-12.7215
|\\	-12.7217
wc	-12.7218
ident	-12.7219
▁nobody	-12.7221
▁vswitch	-12.7221
▁FL	-12.7222
▁subfolder	-12.7226
NP	-12.7231
pywintypes	-12.7234
secs	-12.7235
"]	-12.724
▁pyi	-12.7242
records	-12.7242
▁setlocale	-12.725
▁39	-12.7254
▁took	-12.7254
▁COUNTER	-12.7255
▁newurl	-12.7256
hooks	-12.7258
▁vect	-12.7259
▁conferences	-12.7261
ocal	-12.7271
place	-12.7273
))	-12.7273
▁mocked	-12.7273
gif	-12.7274
redhat	-12.7274
▁Arch	-12.7274
[+]	-12.7276
except	-12.7277
▁semi	-12.7278
multiple	-12.7278
legacy	-12.7279
appauthor	-12.7291
▁STEP	-12.7292
▁isolate	-12.7295
▁reconstruction	-12.7296
▁1.25	-12.7301
▁gene	-12.7301
merged	-12.7304
ier	-12.7305
▁1900	-12.7308
▁squares	-12.7321
▁intermediate	-12.7325
▁trie	-12.7325
'+'	-12.7328
eff	-12.7328
forums	-12.733
hot	-12.733
▁saving	-12.7332
▁inserted	-12.7332
▁nft	-12.7333
enum	-12.7337
20160	-12.7338
▁lum	-12.7339
ndarray	-12.734
▁mw	-12.7343
crete	-12.7346
+\\.\\	-12.7347
idom	-12.7353
mass	-12.7356
▁cone	-12.7359
nglish	-12.7367
▁jsonable	-12.7369
▁produce	-12.737
▁Wiki	-12.7379
▁lasagne	-12.7379
ASSISTAN	-12.7379
▁Alert	-12.7379
▁KNOWN	-12.7379
▁Colour	-12.7379
▁RETRIES	-12.7379
▁WIRE	-12.7379
▁Draft	-12.738
▁Conditional	-12.738
absorb	-12.7381
▁egress	-12.7381
▁copyfileobj	-12.7381
▁Rating	-12.7381
▁WORD	-12.7382
▁downgrade	-12.7383
▁sfnt	-12.7384
▁understand	-12.7384
▁clustering	-12.7385
▁0.88	-12.7385
▁nbunch	-12.7386
▁bump	-12.7386
▁equalizer	-12.7387
▁RETRY	-12.7387
▁defines	-12.7387
▁caret	-12.7389
lv	-12.7389
▁mig	-12.7391
▁DELETED	-12.7391
▁proposals	-12.7392
▁vsan	-12.7392
1027	-12.7397
▁unchanged	-12.74
▁CO	-12.7401
▁CONNECT	-12.7401
▁sine	-12.7407
▁decref	-12.7408
▁TEMPLATES	-12.7408
rmatvec	-12.7409
▁fancy	-12.741
geo	-12.7412
▁production	-12.7412
▁gci	-12.7414
destroying	-12.7414
',\	-12.7415
▁went	-12.7415
▁ag	-12.7417
▁exif	-12.7421
widget	-12.7421
▁"[	-12.7424
editable	-12.7425
outputs	-12.7426
▁configparser	-12.7427
▁taps	-12.7428
▁iscsi	-12.7433
▁hostvars	-12.7442
▁wipe	-12.7447
area	-12.7451
▁netstat	-12.7451
▁Mov	-12.7453
▁sds	-12.7453
▁Eval	-12.7457
▁fam	-12.7458
CODE	-12.7459
CP	-12.746
legend	-12.7464
launch	-12.7466
bzip	-12.7467
neon	-12.7469
▁undirected	-12.747
DT	-12.7471
▁determined	-12.7475
ras	-12.7476
▁'{0}{1}	-12.7479
influxdb	-12.748
)?	-12.7481
compare	-12.7481
poll	-12.7483
ALTER	-12.7486
PROTO	-12.7487
TODO	-12.7488
▁registrations	-12.7489
▁viewing	-12.749
actual	-12.749
youtube	-12.7491
percent	-12.7491
pootle	-12.7491
URI	-12.7491
checksum	-12.7494
ptable	-12.7497
▁aggregates	-12.7497
▁Hi	-12.7498
ia	-12.75
▁finalizer	-12.7501
▁alternatives	-12.7502
ship	-12.7502
LIB	-12.7505
▁illegal	-12.7506
modeladmin	-12.7507
▁savepoint	-12.7509
enrollment	-12.7511
▁strg	-12.7519
▁brick	-12.7526
▁tups	-12.7532
scsi	-12.7534
▁Endpoints	-12.7534
▁typelib	-12.7535
▁kernels	-12.7536
▁0.93	-12.7539
▁wide	-12.7542
eth	-12.7555
▁asdict	-12.7555
rg	-12.7566
▁Tax	-12.7577
implified	-12.7578
▁declare	-12.758
▁getroot	-12.758
▁classic	-12.7581
▁mute	-12.7589
▁ATTRIBUTE	-12.7589
▁Inventor	-12.7592
▁overridden	-12.7592
2147483647	-12.7592
▁Bool	-12.7593
▁peek	-12.7593
▁defrag	-12.7593
▁Fig	-12.7593
▁SUPPRESS	-12.7593
▁understood	-12.7593
▁WHITELIST	-12.7593
▁Pad	-12.7593
▁roundtrip	-12.7594
▁rfxtrx	-12.7594
▁augment	-12.7594
{1}	-12.7594
vagrant	-12.7594
possibly	-12.7595
dSPM	-12.7596
▁Creation	-12.7597
▁GUI	-12.7597
▁Datacenter	-12.7597
▁eth	-12.7597
▁YELLOW	-12.7597
▁firstlineno	-12.7598
▁polyval	-12.7599
▁BUCKET	-12.76
▁FORCE	-12.76
▁Low	-12.76
npy	-12.7601
▁hsa	-12.7603
▁SECONDS	-12.7605
▁cals	-12.7606
▁intersphinx	-12.7606
▁capability	-12.7607
solution	-12.761
CSP	-12.761
▁gsol	-12.7611
▁rmags	-12.7611
▁story	-12.7613
▁simplejson	-12.7613
cef	-12.7615
▁IMPORT	-12.7616
▁few	-12.7616
▁zookeeper	-12.7617
▁picture	-12.762
▁Mark	-12.762
tdout	-12.7623
hard	-12.7623
▁TRACE	-12.7624
▁sla	-12.7625
bn	-12.7625
KB	-12.7628
▁Dicts	-12.7628
nat	-12.7631
▁vh	-12.7631
▁FAILURE	-12.7632
eps	-12.7633
▁Trie	-12.7634
▁0.04	-12.7634
▁bytestring	-12.7635
rep	-12.7635
failures	-12.7635
▁busy	-12.7636
▁ppath	-12.7636
▁'.*'	-12.7641
▁COLUMN	-12.7641
BLOCK	-12.7642
▁logdir	-12.7642
▁quant	-12.7642
▁aseg	-12.7644
▁pylint	-12.7645
(?:[	-12.7646
▁12.0	-12.7651
vgg	-12.7653
▁combo	-12.7653
▁Tok	-12.7658
▁xblocks	-12.7658
maps	-12.7668
=1	-12.7668
eve	-12.7669
▁variations	-12.7674
▁cnn	-12.7675
safelint	-12.7676
***	-12.7677
▁TF	-12.7677
render	-12.7678
2000	-12.7678
▁sip	-12.7679
48	-12.768
▁Mix	-12.7683
▁precisions	-12.7686
▁hf	-12.7686
▁activated	-12.7688
▁yval	-12.7688
etag	-12.7691
▁zfs	-12.7692
purge	-12.7694
▁uv	-12.7695
▁paged	-12.7696
SYSTEM	-12.7697
▁measures	-12.7697
quit	-12.7698
▁pats	-12.77
▁BACK	-12.7705
▁Nest	-12.7706
ny	-12.7707
STATIC	-12.7707
CPP	-12.7708
universal	-12.7708
middle	-12.7708
twisted	-12.7709
▁pluralize	-12.7709
illegal	-12.771
▁introspect	-12.7711
paths	-12.7712
super	-12.7712
ail	-12.7713
TABLE	-12.7713
▁textbooks	-12.7716
▁yum	-12.7716
fasta	-12.7718
▁0.41	-12.772
cleanup	-12.7721
angular	-12.7725
▁refund	-12.7731
▁replacer	-12.7737
sent	-12.7738
rand	-12.7738
caling	-12.7738
?"	-12.7741
▁Scatter	-12.7742
▁Timed	-12.7747
capfile	-12.7749
▁numba	-12.7755
▁subtopic	-12.7755
▁mirrors	-12.7756
ience	-12.7762
chmod	-12.7762
omething	-12.7762
ot	-12.7767
▁rewriter	-12.7768
motion	-12.777
mapping	-12.777
thernet	-12.777
climate	-12.7776
▁DES	-12.7776
▁dictupdate	-12.7779
widgets	-12.7779
assandra	-12.7796
▁Listen	-12.7798
▁cte	-12.7799
▁Construct	-12.7808
milestones	-12.7808
▁primes	-12.7809
▁DGRAM	-12.7809
▁Spyder	-12.7809
▁consistent	-12.7809
▁fermi	-12.7809
▁manner	-12.7809
OWNER	-12.7809
▁CATEGOR	-12.781
▁Applie	-12.781
▁aj	-12.781
systemsetup	-12.781
▁vrrp	-12.7811
▁Native	-12.7811
▁IDENTIFIER	-12.7811
▁BOTO	-12.7813
2996	-12.7814
▁cinfo	-12.7814
▁asyncio	-12.7815
▁pyver	-12.7815
▁downsample	-12.7815
▁expansion	-12.7815
▁multichannel	-12.7817
▁corresponding	-12.7817
▁warnflag	-12.7817
▁anchors	-12.7818
▁inputhook	-12.7819
▁GCS	-12.782
defaultencoding	-12.7821
▁TAGS	-12.7822
acme	-12.7822
▁utilities	-12.7823
▁Vary	-12.7826
▁expo	-12.7829
▁neither	-12.7834
socktype	-12.7835
▁FALSE	-12.7835
▁grand	-12.7836
▁printed	-12.7837
▁fil	-12.7838
player	-12.784
ga	-12.7841
xian	-12.7841
-%02	-12.7846
▁warned	-12.7854
▁xval	-12.7855
▁APPDATA	-12.7856
OUSE	-12.7857
▁Inf	-12.7858
ticket	-12.7859
override	-12.7859
▁synonyms	-12.786
▁closes	-12.786
▁statsmodels	-12.7861
prj	-12.7861
▁subscribed	-12.7861
▁fiff	-12.7862
▁iexact	-12.7864
unordered	-12.7866
▁Unbound	-12.7867
\\%	-12.7867
▁splitline	-12.787
quotient	-12.7871
▁ctor	-12.7873
iecewise	-12.7874
▁selectable	-12.788
▁Truncate	-12.7881
kinter	-12.7884
▁writeable	-12.7888
handled	-12.7891
ef	-12.7894
pypy	-12.7896
▁Clusters	-12.7896
errn	-12.7903
▁runners	-12.7904
-14	-12.7905
▁IPS	-12.7907
▁mors	-12.7911
-20	-12.7911
OFT	-12.7912
▁Ht	-12.7912
▁ico	-12.7912
▁Initializ	-12.7913
▁restrictions	-12.7914
bel	-12.7915
▁Quota	-12.7916
▁warns	-12.7916
▁likelihoods	-12.792
updates	-12.792
amazon	-12.7924
▁Throttle	-12.7925
▁GI	-12.7925
▁pathext	-12.7926
ROOT	-12.7926
mongo	-12.7926
avail	-12.7928
finalizer	-12.793
checks	-12.793
gpg	-12.793
celery	-12.793
frequency	-12.793
when	-12.7931
visibility	-12.7933
▁subpattern	-12.7935
ogc	-12.7936
-%(	-12.7936
--'	-12.7937
absolute	-12.7937
▁newenv	-12.7938
oo	-12.7942
pandas	-12.7943
dont	-12.7944
ins	-12.7945
bot	-12.7947
[@	-12.7953
centroids	-12.7959
▁equivalent	-12.796
pretty	-12.7962
choices	-12.7969
▁visitor	-12.797
▁initialization	-12.7971
▁transformation	-12.7975
▁ties	-12.7976
WT	-12.7976
▁resized	-12.7978
DEV	-12.7978
▁facets	-12.7981
msv	-12.8002
▁SA	-12.8002
pache	-12.8016
▁modal	-12.8017
mime	-12.8018
▁Enabl	-12.802
▁Identifie	-12.8024
ities	-12.8024
isible	-12.8024
reports	-12.8025
fstype	-12.8026
▁censor	-12.8027
'{}	-12.8027
▁ELEMENT	-12.8029
OTATE	-12.8032
40787	-12.8032
▁Vlan	-12.8032
multitaper	-12.8032
▁decomplen	-12.8032
▁wiz	-12.8032
svd	-12.8032
helix	-12.8033
▁Attach	-12.8033
▁DENIED	-12.8033
▁correlate	-12.8033
▁IMG	-12.8033
▁Notifier	-12.8034
1956	-12.8034
noisy	-12.8034
nstructor	-12.8035
▁simpl	-12.8036
▁checkers	-12.8037
▁subarr	-12.8037
▁headphones	-12.8037
▁drain	-12.8038
▁lyr	-12.804
*)	-12.804
▁ASC	-12.8043
▁pump	-12.8044
▁figs	-12.8044
▁quarter	-12.8044
▁contig	-12.8047
▁PLUGINS	-12.8047
▁rna	-12.8047
▁plex	-12.8048
▁whoosh	-12.805
writelines	-12.8051
FL	-12.8051
fits	-12.8052
▁experimental	-12.8052
▁popular	-12.8053
▁SEND	-12.8053
▁Vm	-12.8054
▁Ch	-12.8055
▁dvipng	-12.8056
▁[1,	-12.8056
▁suit	-12.8059
sentry	-12.8063
▁urlpatterns	-12.8064
▁forecast	-12.8066
▁Rotat	-12.8067
▁ACL	-12.8069
▁texture	-12.807
3504	-12.8073
▁BSON	-12.8075
▁reindent	-12.8075
themes	-12.8076
▁CP	-12.8076
**'	-12.8078
▁fstims	-12.8078
DIGITS	-12.808
▁taxes	-12.8082
credit	-12.8088
-----'	-12.8088
▁MR	-12.8089
▁caught	-12.8094
hit	-12.8096
hub	-12.8099
▁prefixer	-12.81
▁installable	-12.8103
▁isreal	-12.8104
▁little	-12.8105
▁PKG	-12.8107
▁authz	-12.8108
tol	-12.8108
▁fixes	-12.8109
VC	-12.8109
▁locally	-12.811
▁typeof	-12.8112
▁Yam	-12.8113
80	-12.8117
▁joblib	-12.8117
ategories	-12.8117
▁fieldnames	-12.812
▁SKIP	-12.8123
multiclass	-12.8123
▁remap	-12.8124
▁Rel	-12.8127
▁dbref	-12.8127
▁successor	-12.8129
balance	-12.813
▁keylen	-12.8135
▁elf	-12.8138
▁REVIEW	-12.8146
▁writestr	-12.8146
▁localename	-12.8148
▁Estimat	-12.8151
amd	-12.8151
tion	-12.8152
▁MEG	-12.8154
bak	-12.8156
▁Loc	-12.8156
copied	-12.8157
PASSWORD	-12.8158
catalog	-12.8158
mountpoint	-12.8158
gpuarray	-12.816
flash	-12.816
linode	-12.816
UUID	-12.8161
▁aliased	-12.8162
hsh	-12.8162
given	-12.8162
about	-12.8163
▁iq	-12.8164
dense	-12.8165
ur	-12.8166
qos	-12.8168
▁scp	-12.817
+(\\	-12.8171
▁ENABLE	-12.8172
shipping	-12.8173
▁repair	-12.8175
decreasing	-12.8179
▁succeed	-12.8182
▁PS	-12.8185
▁apache	-12.8185
▁Comp	-12.8188
▁Bracket	-12.8188
▁profilers	-12.8189
▁dateutil	-12.819
▁Hostname	-12.819
apikey	-12.8196
▁PACK	-12.8198
▁npad	-12.82
▁pq	-12.82
zipped	-12.82
ocial	-12.8201
started	-12.8203
▁mlist	-12.8204
▁nchan	-12.8206
nary	-12.8211
▁summ	-12.8213
unch	-12.8213
ql	-12.8221
MM	-12.8222
encoder	-12.8222
reader	-12.8226
cy	-12.8229
il	-12.8231
▁Vi	-12.8232
▁IV	-12.8236
▁2.4	-12.8238
USE	-12.824
hutdown	-12.8241
nuse	-12.8245
hrift	-12.8247
PM	-12.825
▁refer	-12.8251
▁radi	-12.8252
▁archiver	-12.8255
▁Proc	-12.8258
▁PALETTE	-12.8259
HISTORY	-12.8259
▁shipment	-12.8259
▁Partial	-12.8259
▁Design	-12.8259
▁analog	-12.8259
▁nucl	-12.8259
▁shebang	-12.8259
▁Wrapped	-12.826
▁constrained	-12.826
▁VOLUME	-12.826
▁leftover	-12.8261
▁cgsnapshot	-12.8261
▁SH	-12.8261
MAILS	-12.8262
▁MOBILE	-12.8262
▁hypothesis	-12.8263
▁Manual	-12.8264
lic	-12.8264
▁configobj	-12.8264
▁SECURITY	-12.8265
'\\\\'	-12.8267
▁PARENT	-12.8267
▁experience	-12.8268
▁Repr	-12.8268
▁exited	-12.8268
▁spreadsheet	-12.8272
▁early	-12.8273
▁STATS	-12.8274
▁refactor	-12.8274
ception	-12.8275
▁bytecode	-12.8276
▁shrink	-12.8276
▁profiling	-12.8277
▁signup	-12.8277
▁Signing	-12.828
▁yahoo	-12.8281
/--	-12.8282
BOX	-12.8282
yesterday	-12.8283
▁chatroom	-12.8284
▁welcome	-12.8284
▁kdt	-12.8286
▁pobj	-12.8286
pin	-12.8286
AVA	-12.8287
▁prepopulate	-12.8291
▁'{0}.{1}	-12.8291
▁dispose	-12.8291
▁Pip	-12.8293
▁Counts	-12.8295
▁POWER	-12.8296
▁95	-12.8296
▁Ti	-12.8297
▁weather	-12.8298
▁General	-12.8299
▁Ab	-12.83
▁PROXY	-12.83
▁appended	-12.8302
▁cow	-12.8303
▁phantomjs	-12.8305
▁checkbox	-12.8305
otfile	-12.8309
trim	-12.8311
180.0	-12.8316
▁cxx	-12.8322
▁firefox	-12.8322
▁hms	-12.8326
▁worddict	-12.8336
reviews	-12.8339
▁HDF	-12.8341
▁trade	-12.8343
▁sorting	-12.8344
▁peg	-12.8346
lu	-12.8346
▁subtasks	-12.8349
▁contours	-12.8352
▁dependents	-12.8353
here	-12.8354
mu	-12.8355
▁uidb	-12.8356
workspace	-12.8358
learning	-12.8359
▁UID	-12.8361
▁very	-12.8366
▁sy	-12.8368
▁Chunks	-12.8369
0441	-12.8369
dp	-12.837
LE	-12.837
4207	-12.8373
▁Confirm	-12.8375
▁dog	-12.8378
species	-12.838
HARD	-12.8382
05	-12.8384
kb	-12.8388
SUB	-12.8389
knowledge	-12.8389
trade	-12.8389
sequential	-12.839
paging	-12.839
behave	-12.839
injected	-12.839
desktop	-12.839
▁friends	-12.839
skipped	-12.839
community	-12.8391
multipart	-12.8391
cosine	-12.8391
cassandra	-12.8391
▁symb	-12.8392
mo	-12.8393
tot	-12.8394
▁unrecognized	-12.8396
REVIEW	-12.8404
yum	-12.8406
due	-12.8408
phinx	-12.8408
▁VDI	-12.8411
▁Pxy	-12.8411
SHA	-12.8411
▁Verbos	-12.8411
▁Listing	-12.8412
▁Screen	-12.8412
hline	-12.8414
shop	-12.8416
▁79	-12.8416
▁COMPLETE	-12.8418
▁lport	-12.8419
▁thunk	-12.8419
samefile	-12.8421
▁signs	-12.8424
hl	-12.8425
▁sorter	-12.8425
barrier	-12.8429
56	-12.8433
▁Successful	-12.8434
▁ftable	-12.8437
adam	-12.8437
▁exercises	-12.8438
▁workflows	-12.844
tmpl	-12.8441
▁fee	-12.8444
usion	-12.8452
▁tier	-12.8455
▁qn	-12.8467
msi	-12.8467
▁exclusions	-12.8467
▁dimensional	-12.8472
▁pset	-12.8474
ompatibility	-12.8479
epochs	-12.8485
[%(	-12.8488
EEK	-12.8488
▁HELP	-12.849
▁permute	-12.8491
▁Visual	-12.8491
abcdefghij	-12.8491
mozilla	-12.8491
telephony	-12.8491
▁predecessor	-12.8491
▁twice	-12.8491
▁Ctrl	-12.8492
▁bssid	-12.8492
▁Compress	-12.8492
▁epilog	-12.8492
{0}\	-12.8492
▁Broke	-12.8492
▁hwnd	-12.8493
▁Upgrade	-12.8494
▁strategies	-12.8495
▁HDU	-12.8495
RD	-12.8497
▁behind	-12.8497
▁Mi	-12.8501
▁redeemed	-12.8502
▁okay	-12.8503
bkdf	-12.8504
▁dynamodb	-12.8505
▁caching	-12.8505
▁broker	-12.8505
ico	-12.8505
▁comparator	-12.8506
▁RATE	-12.8507
▁NUMERIC	-12.8507
▁cancelled	-12.8507
:4\	-12.8509
▁discovered	-12.8509
ik	-12.8509
▁horizon	-12.8511
▁Complexes	-12.8512
▁0.116	-12.8513
▁delivery	-12.8513
▁RFC	-12.8513
▁passwordless	-12.8513
▁destinations	-12.8514
break	-12.8514
par	-12.8516
▁AST	-12.8516
▁WARN	-12.852
rot	-12.8521
▁usr	-12.8521
▁generating	-12.8525
▁gae	-12.8525
▁Logic	-12.8527
▁RELEASE	-12.8529
▁uw	-12.8529
ctivation	-12.853
mid	-12.8535
▁calibre	-12.8536
▁0.65	-12.8536
▁standalone	-12.8541
▁really	-12.8545
00.0	-12.8546
▁68	-12.8548
▁uu	-12.8548
▁viewport	-12.855
▁Zi	-12.8557
▁Bu	-12.856
▁nms	-12.856
notification	-12.8561
draft	-12.8561
▁gone	-12.8561
▁disc	-12.8568
▁Big	-12.8568
▁visitors	-12.8569
▁dmi	-12.857
]"	-12.8572
▁acf	-12.8572
▁socks	-12.8573
▁mpt	-12.8573
▁impact	-12.8581
▁centroid	-12.8582
ormalization	-12.8583
SO	-12.8587
SZ	-12.8591
▁rts	-12.8592
▁getattribute	-12.8595
'(?	-12.8595
inc	-12.8599
olaris	-12.8601
autosummary	-12.8603
▁ras	-12.8607
BUILD	-12.8608
▁fext	-12.8611
▁seeg	-12.8612
compiled	-12.8612
powerline	-12.8612
need	-12.8613
ft	-12.8614
ayment	-12.8616
argspec	-12.862
PYTHONPATH	-12.8623
repeat	-12.8624
cygwin	-12.8626
structure	-12.8626
▁---	-12.8627
undirected	-12.8627
manual	-12.8628
authority	-12.8629
please	-12.8629
libvirt	-12.863
ON	-12.8632
ha	-12.8633
**	-12.8633
▁Ax	-12.8634
▁Drop	-12.8637
▁jpeg	-12.8638
TEXT	-12.864
loader	-12.8641
evoked	-12.8644
authors	-12.8646
▁om	-12.8647
variant	-12.865
▁poi	-12.8659
▁attack	-12.8662
au	-12.8662
▁Emit	-12.8663
▁NG	-12.8663
auxiliary	-12.8665
ers	-12.8666
▁faults	-12.8669
ready	-12.867
selection	-12.8674
▁xt	-12.8676
▁qapp	-12.868
306	-12.8681
hint	-12.8682
▁xticklabel	-12.8685
mine	-12.8692
digestmod	-12.8692
'0'	-12.8696
go	-12.8699
cors	-12.8702
sanity	-12.8703
▁Combine	-12.8716
▁announcement	-12.8718
▁shut	-12.8718
hear	-12.8724
pb	-12.8724
▁cz	-12.8725
▁dangl	-12.8725
ndices	-12.8727
▁toolset	-12.8729
klmnopqrstuvwxyz	-12.8729
▁aryty	-12.8729
▁EPSILON	-12.8729
▁Guess	-12.8729
▁Primary	-12.8729
▁SCENARIO	-12.8729
▁disambig	-12.8729
▁EXPLORATION	-12.8729
▁Artist	-12.873
▁Corner	-12.873
▁Bias	-12.873
▁Cred	-12.8731
readlink	-12.8731
▁FOOTER	-12.8731
kdtree	-12.8731
▁HOUR	-12.8732
▁GRAIN	-12.8732
▁BACKUP	-12.8734
▁Website	-12.8734
PRIORITY	-12.8735
nzbd	-12.8736
▁Selector	-12.8738
▁0.11	-12.8738
▁karma	-12.8739
▁auc	-12.8739
▁inferred	-12.874
2259	-12.874
▁pafy	-12.8741
▁hm	-12.8741
▁deconv	-12.8742
▁ZERO	-12.8746
▁continuation	-12.8746
▁backslash	-12.8747
▁winner	-12.8747
▁Boundar	-12.8747
▁instrumented	-12.8748
▁PBKDF	-12.8748
82\	-12.8748
▁claim	-12.8748
▁PARSER	-12.875
▁maxmem	-12.8751
▁compilation	-12.8753
▁Callable	-12.8754
▁Continu	-12.8756
▁harmonic	-12.8756
▁backups	-12.8757
▁smoothed	-12.8757
▁psf	-12.8758
▁rowcol	-12.8761
▁empirical	-12.8762
ile	-12.8762
▁amin	-12.8762
▁Reduce	-12.8765
▁ttype	-12.8767
▁014	-12.8768
DOWN	-12.8771
▁skin	-12.8773
▁packets	-12.8773
▁VP	-12.8774
dm	-12.8776
▁DNA	-12.878
▁oldest	-12.8781
▁utt	-12.8782
attachments	-12.8782
▁Positives	-12.8783
topics	-12.8785
heano	-12.8785
▁alloca	-12.8785
▁recommendations	-12.879
tester	-12.8792
1921	-12.8793
STR	-12.8798
stride	-12.8798
datacenter	-12.8798
neighbor	-12.8799
▁Mon	-12.88
.%(	-12.8801
builtin	-12.8802
▁Ls	-12.8804
▁Author	-12.8805
onesided	-12.8806
▁Si	-12.8807
▁tcl	-12.881
panels	-12.8814
▁iloc	-12.8817
▁mom	-12.8817
▁tdir	-12.8819
pylons	-12.8819
imgadm	-12.882
▁fdist	-12.8822
xqueue	-12.8824
▁EN	-12.8824
▁TC	-12.8826
▁vf	-12.8831
freemem	-12.8832
▁bokeh	-12.8833
▁finding	-12.8835
▁nbd	-12.8836
▁dateformat	-12.884
▁CX	-12.884
▁xontrib	-12.8844
selinux	-12.8844
hold	-12.8845
generated	-12.8848
zbuf	-12.8859
vp	-12.8859
▁php	-12.886
'&'	-12.886
who	-12.8864
▁bary	-12.8867
▁xr	-12.8869
inode	-12.8869
▁tw	-12.8869
▁newfile	-12.8871
indices	-12.8871
bokeh	-12.8872
propagate	-12.8872
orientation	-12.8872
nonzero	-12.8873
encryption	-12.8873
uniform	-12.8873
=[	-12.8873
insecure	-12.8873
SHOW	-12.8874
duplex	-12.8875
vif	-12.8878
▁phen	-12.8878
611	-12.888
▁operat	-12.8882
▁SEC	-12.8886
02{}	-12.8886
▁bitstrs	-12.8892
fixtures	-12.8894
oth	-12.8897
ccx	-12.8897
▁deviation	-12.8898
▁NOTE	-12.8901
▁wavelet	-12.8902
ldap	-12.8903
▁Shut	-12.8904
▁preprocessor	-12.8907
▁CDM	-12.8908
▁protein	-12.8909
▁Rd	-12.8912
▁fromarray	-12.8913
▁resets	-12.8914
▁depend	-12.8917
skeleton	-12.892
▁plen	-12.8922
▁loggers	-12.8923
tick	-12.8924
52	-12.893
▁Cancel	-12.8931
pyo	-12.8936
▁nans	-12.8936
▁escap	-12.8937
▁shortname	-12.8938
networking	-12.8938
hpi	-12.8941
▁localname	-12.8944
▁pcap	-12.8945
▁grouper	-12.8947
▁bugs	-12.8948
▁SNI	-12.8948
CA	-12.8952
▁Rad	-12.8958
seudo	-12.896
('%	-12.8962
▁decompose	-12.8962
ENCY	-12.8964
▁respond	-12.8966
▁keydata	-12.8967
▁solvers	-12.8967
hh	-12.8971
▁INTERNAL	-12.8971
▁Cohort	-12.8973
▁Derivative	-12.8973
▁INFORMATION	-12.8973
▁Recipient	-12.8973
▁Vehicle	-12.8973
▁parentheses	-12.8973
shuup	-12.8973
▁Reject	-12.8974
▁leap	-12.8974
LATEST	-12.8974
▁swiss	-12.8974
▁Sleep	-12.8974
▁PLUGIN	-12.8975
▁eclf	-12.8975
connected	-12.8975
▁dropna	-12.8975
▁Shader	-12.8976
▁Alive	-12.8976
▁elasticache	-12.8977
▁unbalanced	-12.8977
▁bumper	-12.8977
▁shares	-12.8978
▁dominat	-12.8978
▁dk	-12.8979
▁SECTION	-12.898
▁RS	-12.898
▁cwl	-12.898
▁SD	-12.8983
emg	-12.8984
▁BOOLEAN	-12.8985
▁assignee	-12.8985
▁pyamf	-12.8988
▁soon	-12.8988
▁kvp	-12.899
▁IM	-12.8991
▁vbox	-12.8991
▁missed	-12.8992
▁METHODS	-12.8992
▁inverted	-12.8993
▁REGISTRATION	-12.8995
▁plotting	-12.8996
▁routine	-12.8996
urb	-12.8997
▁mname	-12.8999
▁[!]	-12.9
▁ilo	-12.9
▁nor	-12.9001
▁Arc	-12.9001
▁INSERT	-12.9002
▁cosh	-12.9004
▁ck	-12.9005
▁Methods	-12.9005
▁explored	-12.9008
================	-12.9008
▁binom	-12.9009
too	-12.901
▁Tar	-12.9011
▁OSX	-12.9017
▁tune	-12.9019
▁hier	-12.9019
mongodb	-12.9023
▁Conn	-12.9025
▁001	-12.9025
glfw	-12.9025
▁unescaped	-12.9025
▁staticfiles	-12.9027
.{0}	-12.9029
expire	-12.904
vel	-12.904
7.	-12.904
▁Mid	-12.9043
▁rls	-12.9043
vdi	-12.9045
DAO	-12.905
▁redirection	-12.905
▁descrs	-12.9051
va	-12.9052
▁fnm	-12.9054
▁sysadmin	-12.9055
article	-12.9055
▁dv	-12.9056
usermod	-12.9057
62	-12.9059
▁albumartist	-12.9059
▁ubuntu	-12.906
pherical	-12.9061
mesh	-12.9062
▁vw	-12.9063
▁diags	-12.9064
ja	-12.9064
qualname	-12.9064
▁fuzz	-12.9065
▁'"{0}"	-12.9066
BACK	-12.9066
▁BYTE	-12.9069
▁101	-12.907
▁%.3	-12.9071
getvalue	-12.9073
▁POO	-12.9074
atal	-12.9078
TARGET	-12.9081
▁Press	-12.9085
▁1.4	-12.9086
▁docstrings	-12.9089
▁Rep	-12.9089
vertical	-12.9093
▁tps	-12.9097
lying	-12.9097
▁Updater	-12.9099
recognized	-12.9103
exploit	-12.9105
supported	-12.9108
pause	-12.9108
csrf	-12.9112
README	-12.9117
office	-12.9119
vgname	-12.9119
▁'::1	-12.9121
polygon	-12.9122
sqlalchemy	-12.9122
▁prs	-12.9123
▁IDS	-12.9125
nginx	-12.9126
ovs	-12.9127
ard	-12.9128
▁Steps	-12.913
already	-12.9132
there	-12.9132
relative	-12.9132
▁plv	-12.9134
usertypes	-12.9135
MS	-12.9135
AA	-12.9138
rsync	-12.914
▁caches	-12.9141
▁Lower	-12.9142
▁Final	-12.9147
▁newest	-12.9148
restore	-12.9148
nm	-12.9152
untracked	-12.9153
▁specification	-12.9156
xz	-12.916
▁submodules	-12.9161
const	-12.9161
▁qualifier	-12.9161
IGNORED	-12.9162
▁dnsserver	-12.9163
slope	-12.9163
contacts	-12.9165
▁Flatten	-12.9165
▁POSITION	-12.9169
TYPES	-12.9171
34	-12.9175
binomial	-12.9181
▁bash	-12.9183
▁AB	-12.9183
▁sysid	-12.9183
KEY	-12.9185
privatekey	-12.919
▁servername	-12.9191
unicodedata	-12.9195
sphinx	-12.9196
verhang	-12.9198
hits	-12.92
▁mgf	-12.9201
▁syn	-12.9201
cookies	-12.9204
filesystem	-12.9206
loadavg	-12.9207
▁kwd	-12.9215
▁LOAD	-12.9215
rU	-12.9216
▁raster	-12.9216
unset	-12.9217
▁CON	-12.9217
parens	-12.9221
▁sugg	-12.9222
RIBCL	-12.9223
▁Developer	-12.9223
▁Milestone	-12.9223
▁quaternion	-12.9223
PRIMARY	-12.9223
WWW	-12.9224
▁PLURAL	-12.9225
variables	-12.9225
▁resols	-12.9225
▁kurt	-12.9225
▁TYPECLASS	-12.9225
▁calibrat	-12.9226
▁><	-12.9227
▁FUNCTIONS	-12.9227
▁Framework	-12.9227
ethtool	-12.9227
▁ez	-12.9227
▁OU	-12.9228
▁RDF	-12.9228
▁Vertic	-12.9228
haystack	-12.9229
▁LEVELS	-12.9229
▁TRIGGER	-12.923
▁Off	-12.923
▁ACTIONS	-12.923
▁ARG	-12.923
▁Card	-12.9231
▁EPS	-12.9231
▁aria	-12.9232
▁DYNAMIC	-12.9232
▁sift	-12.9235
vulnerability	-12.9235
▁relay	-12.9237
▁SM	-12.9237
▁linebreaks	-12.9238
configure	-12.9239
▁LSTM	-12.924
▁yhat	-12.9242
▁bulkloader	-12.9244
▁Transformer	-12.9244
▁CHANGED	-12.9245
▁Sender	-12.9245
▁reasons	-12.9245
▁TITLE	-12.9248
▁dryrun	-12.9248
▁STORAGE	-12.9248
▁SOCKS	-12.925
abcd	-12.9251
▁ANY	-12.9252
startupinfo	-12.9253
▁catalogue	-12.9255
▁newclip	-12.9256
▁matlab	-12.9256
▁openshift	-12.9258
▁bell	-12.9259
▁cosmags	-12.9261
▁embargo	-12.9262
▁SIZES	-12.9262
▁MAIL	-12.9263
▁documented	-12.9263
:0	-12.9264
▁unroll	-12.9266
pd	-12.9268
▁vo	-12.927
duplicate	-12.927
fileclient	-12.9271
yp	-12.9272
gram	-12.9274
▁kml	-12.9278
▁decorat	-12.9279
▁hbas	-12.9279
▁ALLOW	-12.9284
▁SOFTWARE	-12.9285
▁sdb	-12.9285
umount	-12.9287
virtualenv	-12.9288
popitem	-12.9289
▁shown	-12.9292
dpkg	-12.9296
▁invocation	-12.9299
special	-12.9299
lope	-12.9299
▁vline	-12.9302
▁Remain	-12.9304
▁beg	-12.9308
forum	-12.931
ordered	-12.931
▁monitored	-12.9311
▁rcv	-12.9311
utctimetuple	-12.9311
342	-12.9319
▁reviewed	-12.9325
24	-12.9327
▁queued	-12.9327
▁adap	-12.9328
▁'{0}'.	-12.9332
hr	-12.9334
▁microsite	-12.9338
zeros	-12.9338
locks	-12.9338
WEB	-12.9339
▁datestr	-12.934
indexer	-12.9341
▁triggered	-12.9341
▁stacks	-12.9342
ignored	-12.9345
▁enums	-12.9345
▁motion	-12.9345
▁Rect	-12.9346
secrets	-12.9349
▁subcommands	-12.9351
▁prf	-12.9351
▁leases	-12.9358
▁sqla	-12.9359
▁stars	-12.9361
dnsnames	-12.9364
limits	-12.9366
▁lan	-12.9366
▁BIO	-12.9371
viewfinder	-12.9374
stdio	-12.9374
▁suc	-12.9376
rdbms	-12.9376
▁fund	-12.9377
▁ems	-12.9377
iagonal	-12.9378
spyder	-12.9378
wrong	-12.9379
gallery	-12.9379
hardware	-12.9379
environ	-12.938
unrecognized	-12.9381
▁scr	-12.9383
)[	-12.9389
cpp	-12.939
▁indicate	-12.9395
▁ios	-12.9396
▁objtype	-12.9396
▁zfile	-12.9399
▁pypi	-12.9401
▁MASK	-12.9405
▁motif	-12.941
perms	-12.9417
▁exits	-12.9421
▁ngen	-12.9423
rnd	-12.9426
▁mapi	-12.9427
▁entrypoint	-12.943
▁maxf	-12.9431
fo	-12.9431
ovariance	-12.944
▁fob	-12.9445
▁ssd	-12.9446
]+)'	-12.9453
sp	-12.9454
translations	-12.9464
ffff	-12.9464
team	-12.9464
▁vserver	-12.9466
xor	-12.9472
▁lap	-12.9477
▁jn	-12.9477
OP	-12.9479
▁subsequent	-12.9479
discretize	-12.948
technique	-12.948
▁dictionaries	-12.948
▁Alteration	-12.948
▁Sheet	-12.948
▁Codon	-12.948
oasis	-12.948
▁Hyper	-12.948
▁carving	-12.948
symbols	-12.948
▁wininst	-12.9481
▁TFR	-12.9481
▁Speed	-12.9481
▁Bill	-12.9481
▁univariate	-12.9482
▁Ps	-12.9482
ABCDEFGH	-12.9482
▁quotation	-12.9482
▁appropriate	-12.9482
▁subplotspec	-12.9483
▁Tweet	-12.9483
▁whiten	-12.9483
▁flaky	-12.9484
▁cvxopt	-12.9484
▁profit	-12.9484
▁LIBS	-12.9485
6733	-12.9485
▁MEMORY	-12.9486
▁corrcoef	-12.9487
▁precise	-12.9488
\').	-12.9488
orical	-12.9488
▁unsorted	-12.9488
▁Exec	-12.949
▁itself	-12.9491
▁0.223	-12.9491
cpuset	-12.9492
▁BLOB	-12.9492
▁Summarize	-12.9493
▁spread	-12.9493
FFT	-12.9495
▁FIRST	-12.9497
▁localization	-12.9498
SR	-12.9498
diag	-12.9499
▁administrator	-12.95
he	-12.9502
▁llf	-12.9504
▁searched	-12.9506
▁NET	-12.9506
▁maxshield	-12.9507
▁43	-12.9509
▁relr	-12.9509
▁transformers	-12.9509
▁flagged	-12.951
▁DISABLED	-12.9511
▁curator	-12.9512
▁nil	-12.9512
▁",	-12.9512
latlon	-12.9513
▁GPU	-12.9513
▁passive	-12.9513
▁amf	-12.9515
edf	-12.9515
octal	-12.9516
▁Compil	-12.9517
▁deterministic	-12.952
▁foreground	-12.9521
▁LOC	-12.9522
star	-12.9522
▁cpg	-12.9522
circle	-12.9523
▁srt	-12.9524
▁ospf	-12.9524
▁nzbname	-12.9525
▁fnc	-12.9525
▁jsonrpc	-12.9529
▁preprocessing	-12.953
▁colorby	-12.9531
subs	-12.9532
▁censored	-12.9532
▁SALT	-12.9533
▁deployed	-12.9534
▁invalidation	-12.9537
▁updater	-12.9537
▁SURF	-12.954
▁flac	-12.954
▁usages	-12.9543
commerce	-12.9544
▁cstr	-12.9545
▁ACTIVE	-12.9545
▁rare	-12.9546
▁resourcebase	-12.9553
endorsed	-12.9555
▁corrs	-12.9555
052	-12.9555
nfrom	-12.9558
▁parsedate	-12.9561
ening	-12.9563
cmake	-12.9565
▁cvx	-12.9565
▁cpl	-12.9566
▁SAFE	-12.957
reactor	-12.957
laddr	-12.957
▁timings	-12.9572
▁Cap	-12.9574
where	-12.9575
BOTH	-12.9576
NK	-12.9577
*)'	-12.9579
pow	-12.9581
getsourcefile	-12.9582
▁Adjust	-12.9582
▁Colors	-12.9584
PTR	-12.9586
▁Me	-12.9588
zendesk	-12.9589
▁et	-12.9592
opendocument	-12.9596
▁Tick	-12.9596
chart	-12.9598
▁Ether	-12.9602
creationflags	-12.9602
▁Refere	-12.9604
▁Fp	-12.9604
▁datacenters	-12.9606
▁equality	-12.9607
rsa	-12.9608
▁Com	-12.9612
regular	-12.9614
▁POS	-12.9618
▁pie	-12.962
▁RED	-12.962
stamp	-12.9623
▁extreme	-12.9624
▁FD	-12.9626
▁dur	-12.9629
zope	-12.963
firewall	-12.9631
nested	-12.9631
▁xm	-12.9632
daymonth	-12.9633
finish	-12.9637
\',	-12.9638
inspect	-12.9639
PNG	-12.964
VBD	-12.964
▁uwlines	-12.964
CACHE	-12.9642
libraries	-12.9642
silent	-12.9642
indicator	-12.9642
authentication	-12.9642
maximum	-12.9642
▁triggers	-12.9647
csf	-12.9647
▁itr	-12.9648
issue	-12.965
▁passwords	-12.965
arth	-12.9651
exported	-12.9652
cisco	-12.9658
▁instant	-12.9661
▁setenv	-12.9663
impl	-12.9664
lrange	-12.9666
▁Reload	-12.9668
fcgi	-12.9669
▁tzname	-12.967
▁DS	-12.9671
▁prerequisite	-12.9674
▁destroyed	-12.9674
▁{1}:	-12.9679
▁yellow	-12.9684
sfortran	-12.9684
/{}	-12.969
▁drives	-12.969
▁Cur	-12.9693
sites	-12.9695
▁guide	-12.9696
▁argdata	-12.97
overage	-12.9701
paste	-12.9704
fac	-12.9709
▁RF	-12.9714
31297	-12.9719
▁Regress	-12.9725
blog	-12.9727
crypto	-12.9729
prof	-12.9729
▁referent	-12.9732
▁iei	-12.9733
rs	-12.9736
defer	-12.9737
▁gauss	-12.9737
%.2	-12.9738
▁wm	-12.9738
▁DAR	-12.9739
▁declarat	-12.9742
bdstoken	-12.9743
▁Privilege	-12.9743
▁Spreadsheet	-12.9743
▁divergence	-12.9743
▁TILING	-12.9743
▁SGD	-12.9743
▁Internet	-12.9743
▁Bridge	-12.9743
▁Month	-12.9743
▁Contain	-12.9744
browsing	-12.9744
▁ephemeris	-12.9744
▁transferred	-12.9744
▁Radio	-12.9745
▁Supplier	-12.9745
▁Way	-12.9745
▁minibatches	-12.9745
▁Peg	-12.9746
▁numeral	-12.9747
▁IDENTITY	-12.9747
▁quantize	-12.9747
▁camel	-12.9747
pinned	-12.9748
▁sieve	-12.9748
▁structdesc	-12.9749
mpp	-12.9749
▁transient	-12.975
wikipedia	-12.975
▁HANDLERS	-12.975
▁subsequence	-12.9752
SC	-12.9752
▁prevent	-12.9752
▁uniques	-12.9752
▁'!='	-12.9752
▁velocity	-12.9753
▁committed	-12.9756
▁countries	-12.9757
▁lane	-12.9758
▁preorder	-12.9759
▁ipstr	-12.9762
▁matveca	-12.9762
7206	-12.9763
▁speech	-12.9764
▁tear	-12.9766
▁rectpolygon	-12.9766
HPI	-12.9767
amma	-12.9768
▁obfuscate	-12.9768
▁pexpect	-12.9768
<1>	-12.9768
napalm	-12.9768
authkey	-12.9769
▁DOT	-12.9769
▁mnc	-12.977
▁pname	-12.977
▁Exceed	-12.9771
▁EMAILS	-12.9772
ee	-12.9773
▁untranslated	-12.9774
▁direc	-12.9775
▁going	-12.9776
▁oslo	-12.9776
▁indici	-12.9778
▁msk	-12.9779
▁gcdex	-12.978
▁keystr	-12.9786
cdf	-12.9787
ifier	-12.9793
▁pnp	-12.9794
▁presentation	-12.9796
▁roster	-12.9797
avatar	-12.98
iface	-12.9803
▁INCLUDE	-12.9803
partition	-12.9807
▁inequality	-12.9809
▁pfreq	-12.9811
▁balanced	-12.9811
▁aborted	-12.9811
rv	-12.9815
xen	-12.9815
▁newre	-12.9815
▁callers	-12.9816
RATOR	-12.9817
design	-12.982
TY	-12.9821
ich	-12.9822
▁contenttype	-12.9822
>&	-12.9825
▁encoders	-12.9826
1923	-12.9833
▁{0}"	-12.9837
dimension	-12.9839
selenium	-12.9839
program	-12.984
doctest	-12.9842
authorization	-12.9842
▁firstline	-12.9847
▁sigm	-12.9848
▁autotest	-12.9848
aught	-12.9849
▁Calculate	-12.9851
▁Gi	-12.9853
▁insp	-12.9854
▁preset	-12.9854
ban	-12.9856
8,	-12.9856
yscale	-12.9859
▁outpath	-12.9861
▁auths	-12.9865
▁getuser	-12.987
▁pkglist	-12.9872
alactic	-12.9879
lp	-12.9881
▁injected	-12.9886
apple	-12.9888
EXT	-12.9889
▁Green	-12.9889
pp	-12.989
parsed	-12.9893
vdata	-12.9893
▁inotify	-12.9893
▁enrollments	-12.9893
▁Bo	-12.9899
LI	-12.9901
▁'[\\	-12.9901
▁rdn	-12.9902
(*)	-12.9905
▁undef	-12.9907
▁programme	-12.9907
EQUAL	-12.9908
rabbitmq	-12.9909
CONSTRAINT	-12.9911
vmware	-12.9912
caption	-12.9912
implementation	-12.9912
unsupported	-12.9912
courseware	-12.9913
eog	-12.9913
cutoff	-12.9913
xonsh	-12.9913
etic	-12.9913
half	-12.9914
dropin	-12.9915
▁residuals	-12.9919
nic	-12.9919
uptime	-12.992
nbox	-12.992
SM	-12.9923
▁visits	-12.9924
aming	-12.9925
never	-12.9926
▁war	-12.9926
▁yout	-12.9927
ward	-12.9928
▁0.533	-12.9929
▁tform	-12.993
▁ew	-12.9931
▁retrying	-12.9938
▁hunt	-12.994
REQU	-12.994
=/	-12.9943
bat	-12.9945
▁Bi	-12.9946
'@'	-12.9947
▁mov	-12.9947
typename	-12.995
pythonpath	-12.9951
▁concatenated	-12.9953
responsive	-12.9957
▁'-1'	-12.9958
sss	-12.9958
IDL	-12.9959
-?	-12.9972
▁Shel	-12.9972
party	-12.9974
▁xfm	-12.9981
scgi	-12.9984
▁bullet	-12.9984
late	-12.9986
0580	-12.9989
▁memmap	-12.9991
▁nper	-12.9994
tri	-12.9994
▁Canonical	-12.9996
etween	-12.9999
▁eb	-13.0007
ized	-13.0011
▁NAV	-13.0013
▁SORT	-13.0013
▁TEXTURE	-13.0013
▁arccos	-13.0013
▁Synth	-13.0013
▁Recommendation	-13.0013
▁ANTI	-13.0013
▁xieta	-13.0014
▁Solid	-13.0014
▁ntoa	-13.0014
▁lmbda	-13.0014
▁BUILTIN	-13.0015
▁FORBIDDEN	-13.0015
▁swapped	-13.0015
▁FIXED	-13.0015
▁wrapping	-13.0015
UID	-13.0016
▁Expired	-13.0016
▁diffset	-13.0016
▁hexsha	-13.0017
/?	-13.0017
▁DATASTORE	-13.0018
▁balancing	-13.0018
▁interesting	-13.0019
▁trophy	-13.0019
▁maxsegs	-13.0019
▁dsn	-13.002
.3130	-13.002
▁vlinenum	-13.002
▁Capture	-13.0021
▁transversals	-13.0022
▁arches	-13.0023
▁BRANCH	-13.0023
▁Executable	-13.0024
▁plurals	-13.0025
▁serie	-13.0025
▁erosion	-13.0026
88	-13.0028
modulo	-13.0028
▁VARCHAR	-13.0029
▁Tables	-13.003
configurations	-13.0031
▁couldn	-13.0035
▁-*-	-13.0035
▁libzmq	-13.0036
▁ridge	-13.0037
▁bipartite	-13.0037
▁UNPACK	-13.0037
ised	-13.0038
▁Pix	-13.0039
ev	-13.004
▁WINDOW	-13.004
▁synsets	-13.0042
▁fiducials	-13.0042
▁descent	-13.0043
▁nib	-13.0044
▁Fold	-13.0044
▁lose	-13.0045
▁freebsd	-13.0045
▁QUOTE	-13.0047
micro	-13.0047
ru	-13.0052
▁'200	-13.0054
▁representer	-13.0056
▁II	-13.0058
▁adb	-13.0059
pward	-13.0059
▁anomal	-13.006
coils	-13.006
▁privileged	-13.0061
gridsize	-13.0062
startup	-13.0063
▁websocket	-13.0063
▁getpw	-13.0064
validator	-13.0071
arm	-13.0072
▁plays	-13.0075
[...]
